{
  "\u2581clever": 11268,
  "\u2581metric": 11048,
  "\u2581sophia": 8667,
  "ffin": 14381,
  "nche": 25093,
  "\u2581necessarily": 8354,
  "igraphy": 22134,
  "ico": 10263,
  "tc": 12537,
  "\u2581tho": 26795,
  "\u2581messengers": 27940,
  "\u2581truss": 23226,
  "\u2581recaptured": 22840,
  "ials": 25342,
  "\u2581vincent": 5322,
  "\u2581historians": 6864,
  "\u2581latest": 5747,
  "io": 2697,
  "\u2581kapoor": 16131,
  "\u2581periodical": 20804,
  "\u2581outraged": 22560,
  "\u2581combining": 10568,
  "\u2581file": 4373,
  "\u2581orion": 17749,
  "\u2581sociological": 23848,
  "\u2581parameters": 10711,
  "\u2581witnesses": 8392,
  "\u2581cries": 11844,
  "dha": 16518,
  "\u25811703": 27368,
  "\u2581ordained": 8494,
  "\u2581alias": 13595,
  "\u2581girls": 2059,
  "\u2581surfer": 26749,
  "\u2581synth": 23205,
  "\u2581nut": 16492,
  "\u2581buy": 3967,
  "\u2581\u1d52": 506,
  "\u2581work": 1149,
  "edes": 17354,
  "\u2581lodge": 6412,
  "\u2581near": 1381,
  "\u2581insurance": 4429,
  "enter": 28112,
  "\u2581pulled": 1768,
  "hor": 15370,
  "\u7cf9": 29462,
  "\u2581homer": 10527,
  "\u2581jury": 5469,
  "\u2581larson": 20215,
  "rna": 11791,
  "\u2581dinosaurs": 17150,
  "\u2581isle": 7844,
  "\u2581pierce": 8269,
  "\u2581paving": 27009,
  "tip": 24103,
  "\u2581\u3066": 668,
  "hos": 14008,
  "\u2581cabaret": 18687,
  "\u2581reckless": 17557,
  "\u2581individually": 13260,
  "\u2581antoine": 11447,
  "\u2581squash": 17796,
  "\u2581lowest": 6292,
  "vision": 16086,
  "\u258138": 3231,
  "\u2581entries": 9447,
  "\u2581standings": 10871,
  "\u2581reliance": 16977,
  "\u56db": 29326,
  "\u2581mercury": 7716,
  "\u2581policies": 5045,
  "eral": 20675,
  "\u2581runaway": 18052,
  "\u2581willingly": 17112,
  "\u2581fallout": 22904,
  "aire": 13739,
  "eer": 10512,
  "\u2581onto": 2033,
  "\u2581goa": 14246,
  "\u2581felicia": 26581,
  "idae": 5098,
  "\u2581ordinary": 5625,
  "recht": 27111,
  "\u2581atoms": 12355,
  "asurable": 27331,
  "\u2581iata": 8835,
  "\u2581kala": 25211,
  "\u2581exponential": 26260,
  "\u304a": 29178,
  "\u2581dedicated": 3058,
  "pine": 18267,
  "\u2581gallant": 25986,
  "\u2581tide": 9403,
  "\u2581suffers": 16569,
  "\u2581translate": 16639,
  "3": 1511,
  "\u2581scandals": 28611,
  "\u2581amount": 2817,
  "\u2581unnecessary": 13205,
  "\u03c7": 28739,
  "\u2581bethany": 15561,
  "\u2581failing": 6991,
  "\u2581blinked": 6950,
  "\u58eb": 29335,
  "oma": 8628,
  "\u2581opens": 6482,
  "\u2581submissions": 26844,
  "leen": 23131,
  "\u2581scarlet": 10864,
  "\u2581troupe": 15019,
  "\u2581avenge": 23898,
  "200": 27334,
  "\u2581continues": 3249,
  "\u2581kg": 3707,
  "kshi": 26490,
  "apple": 22806,
  "\u2581achieve": 5164,
  "50": 11378,
  "\u2581sleeves": 14116,
  "\u2581tata": 22238,
  "\u2581zur": 16926,
  "\u2581\u02e1": 154,
  "\u2581beige": 27801,
  "\u2581and": 1001,
  "ence": 9129,
  "\u2581tariff": 22236,
  "\u2581disgrace": 28593,
  "\u2581captives": 20498,
  "\u2581el": 2451,
  "\u2581knesset": 26901,
  "\u2581thrash": 26044,
  "\u2581arrest": 5547,
  "\u2581nelly": 28500,
  "\u2581bare": 5438,
  "\u2581nothing": 1500,
  "\u2581startup": 21754,
  "\u2581wai": 22703,
  "\u2581beers": 17009,
  "\u2581heresy": 27356,
  "\u2581kilometer": 19597,
  "\u91ce": 29491,
  "\u2581contend": 26483,
  "\u2581varsity": 10712,
  "\u2581commemorate": 12417,
  "thed": 22818,
  "\u2581harlow": 21547,
  "\u2581allan": 7928,
  "\u2581bells": 9120,
  "\u2581achieving": 9912,
  "\u258143rd": 24749,
  "del": 8249,
  "\u2581lowland": 14236,
  "\u2581760": 23645,
  "\u2581plural": 12996,
  "\u2581breached": 24771,
  "\u2581guaranteed": 11363,
  "\u2581haas": 21998,
  "\u2581discontent": 26650,
  "yan": 6056,
  "\u2581davidson": 11019,
  "\u2581ada": 14264,
  "\u2581tier": 6565,
  "\u2581newborn": 19664,
  "\u2581calculate": 17424,
  "gles": 16127,
  "\u2581georgina": 26360,
  "\u2581soc": 26086,
  "vi": 4739,
  "\u2581peacefully": 20616,
  "\u2581december": 1287,
  "\u2581australians": 14741,
  "\u2581attacking": 6868,
  "\u2581filly": 21064,
  "\u2581\u0f44": 430,
  "\u2581editing": 8262,
  "\u2581nice": 2837,
  "\u2581expansive": 24147,
  "\u2581amazingly": 28352,
  "\u2581rolf": 22383,
  "gata": 25591,
  "\u2581feat": 7660,
  "basket": 24353,
  "ignon": 23798,
  "\u2581assassination": 9104,
  "\u2581fleming": 12781,
  "\u2581spectators": 11407,
  "\u2581prove": 5013,
  "\u2581apartments": 8622,
  "\u0645": 21194,
  "\u2581sulfur": 16866,
  "\u2581bobbed": 28581,
  "\u2581off": 1128,
  "\u2581reluctance": 20664,
  "\u2581audi": 19077,
  "\u2581objectives": 10102,
  "\u2581boycott": 16759,
  "yang": 11200,
  "\u2581endemic": 6322,
  "\u2581\u1103": 460,
  "\u2581made": 1084,
  "\u2581berkshire": 14572,
  "\u2581submarines": 11624,
  "\u2581loss": 2281,
  "\u2581added": 1796,
  "\u2581adjust": 13173,
  "top": 13401,
  "\u2581269": 24719,
  "\u2581simultaneous": 16426,
  "\u2581sebastien": 27330,
  "\u2581capsule": 17271,
  "\u2581planetary": 16702,
  "\u2581recognised": 6845,
  "\u2581barren": 19227,
  "\u2581slamming": 14211,
  "\u2581low": 1661,
  "\u25811949": 3087,
  "\u2581worthy": 10009,
  "\u2581northbound": 19057,
  "\u2581weasel": 28270,
  "\u2581beatrice": 13809,
  "\u3051": 29182,
  "\u2581goethe": 22175,
  "\u2581oppressive": 27560,
  "\u2581gray": 2899,
  "un": 3611,
  "\u2581investigators": 13768,
  "\u2581louie": 16440,
  "lous": 14536,
  "\u2581presumed": 13611,
  "\u2581imposing": 15627,
  "\u2581labeled": 11601,
  "\u2581salem": 9391,
  "\u7a7a": 29458,
  "rave": 21403,
  "\u2581variously": 16613,
  "\u2581manifested": 23908,
  "nen": 9226,
  "\u2581umm": 25116,
  "\u2581harbor": 5498,
  "\u2581manila": 8013,
  "\u2581rouge": 11803,
  "\u2581anxiety": 9091,
  "\u2581facilitated": 18603,
  "\u2581nay": 28351,
  "\u2581bluff": 13443,
  "\u2086": 29084,
  "\u2581italian": 2061,
  "\u2581wcw": 23217,
  "\u2581bohemian": 17065,
  "sca": 14784,
  "\u2581randolph": 12033,
  "\u2581leaking": 23327,
  "\u2581years": 1089,
  "\u2581dex": 19649,
  "\u2021": 29064,
  "\u2581yells": 21116,
  "\u2581article": 2722,
  "\u2581salmon": 10842,
  "\u2581\u0938": 341,
  "\u2581handle": 4049,
  "\u2581evangelical": 10297,
  "\u2581clothing": 4931,
  "\u2581minorities": 13304,
  "\u2581inability": 12722,
  "\u2581hawthorne": 22442,
  "\u2581outreach": 14643,
  "\u2581\u5f8c": 849,
  "izes": 9059,
  "\u2581client": 6398,
  "rano": 19772,
  "~": 28645,
  "\u2581worm": 14487,
  "\u2581cadillac": 19427,
  "\u2581telecommunications": 11110,
  "\u2581paso": 16163,
  "\u2581gomez": 11793,
  "\u2581subconscious": 26954,
  "\u2581\u30d2": 722,
  "\u2581id": 7911,
  "\u2581cactus": 22267,
  "\u25811841": 8842,
  "\u2581protects": 17229,
  "\u2581indicator": 16247,
  "\u2581alloy": 16566,
  "\u2581dessert": 17066,
  "\u2581canons": 20977,
  "\u2581nonfiction": 24755,
  "\u2581buckley": 16900,
  "\u2581pizza": 9735,
  "ounded": 25242,
  "\u2581clothes": 3255,
  "\u2581ether": 27857,
  "\u2581spoke": 2766,
  "\u4eee": 29289,
  "\u2581applying": 10245,
  "\u2581daring": 14238,
  "\u2581sectional": 26199,
  "\u2581911": 18991,
  "\u2581misunderstood": 27949,
  "\u2581frankish": 25167,
  "\u2581wilcox": 22928,
  "\u2581galicia": 18019,
  "\u2581pressed": 3510,
  "holz": 27096,
  "oire": 25252,
  "\u2581okinawa": 14054,
  "wash": 27558,
  "\u25811930": 3481,
  "\u2581loud": 4191,
  "\u2581caught": 2238,
  "\u2581lobbied": 25423,
  "\u2581leopold": 11754,
  "frey": 21588,
  "\u2581magnificent": 11049,
  "\u2581glasses": 6879,
  "sier": 19238,
  "\u2581effectiveness": 11355,
  "\u2581verge": 15081,
  "\u2581maker": 8340,
  "\u03b6": 28726,
  "\u2581hellenistic": 26466,
  "\u2581copied": 14828,
  "\u2581canadians": 15487,
  "\u2581plurality": 28020,
  "\u2581nyu": 26937,
  "ffled": 27581,
  "\u2581proliferation": 19252,
  "\u2581ethan": 5068,
  "\u2581reunite": 24374,
  "\u2581mundane": 23686,
  "\u2500": 29144,
  "\u2581robots": 12509,
  "\u2581blake": 5513,
  "\u2581dorsey": 26334,
  "\u2581colchester": 19117,
  "\u2581space": 1688,
  "\u2581portage": 24142,
  "\u2581archangel": 27187,
  "\u2581restraint": 18357,
  "\u2581nominally": 23209,
  "\u0254": 28681,
  "\u2581geese": 27521,
  "\u2581tate": 8904,
  "\u2581brunswick": 8194,
  "\u2581marcia": 21550,
  "\u2581relevance": 20925,
  "inton": 26030,
  "\u2581mohawk": 21340,
  "\u2581rendezvous": 19560,
  "\u2581buttons": 10289,
  "\u2581tactical": 7610,
  "\u2581intake": 12824,
  "\u2581\u02e3": 156,
  "urer": 26597,
  "uid": 20274,
  "\u2581nominations": 8932,
  "\u2581acting": 2774,
  "dora": 23564,
  "\u72ac": 29436,
  "\u6c11": 29420,
  "\u2581323": 24394,
  "\u2581exactly": 2601,
  "\u2581thirty": 3230,
  "\u2581topic": 7478,
  "zie": 13274,
  "\u2581shuffle": 22048,
  "\u2581escapes": 11978,
  "\u2581willing": 4629,
  "\u2581conserved": 18997,
  "shed": 13742,
  "\u2581trapped": 6569,
  "\u2581\u10e1": 455,
  "\u2581stu": 23648,
  "bas": 21085,
  "\u2581sexy": 6918,
  "\u2581tenth": 6893,
  "\u2581association": 1525,
  "\u2581duel": 13218,
  "\u2581posters": 13923,
  "\u2581lanes": 9916,
  "tangled": 26900,
  "\u2581abandoning": 18818,
  "\u25811898": 5070,
  "\u2581rohan": 27607,
  "\u0627": 24575,
  "\u2581\u05d0": 244,
  "\u2581bowman": 18300,
  "\u2581additive": 28169,
  "\u2581specialists": 14746,
  "\u2581md": 8110,
  "\u2581nebula": 24679,
  "\u2581insight": 11371,
  "\u2581hushed": 23035,
  "\u2581hanover": 13395,
  "had": 15104,
  "nee": 23047,
  "\u2581disgust": 11723,
  "\u2581biographies": 21058,
  "\u2581favorite": 4442,
  "\u2581\u4e94": 756,
  "\u2581point": 1393,
  "\u2581variability": 27438,
  "\u2581footing": 21851,
  "\u2581basin": 5405,
  "\u2581standard": 2117,
  "\u2581permits": 13247,
  "\u2581profoundly": 27091,
  "\u2581\u0f62": 437,
  "\u2581crazed": 27345,
  "\u2581masters": 4974,
  "ieving": 24589,
  "\u2581unidentified": 19295,
  "\u2581dissolution": 11277,
  "\u2581unspoken": 24984,
  "\u2581sussex": 8505,
  "\u25811775": 13278,
  "\u2581ratios": 20881,
  "\u2581petit": 16270,
  "\u2581talented": 9906,
  "\u2581pulse": 7189,
  "\u2581reconstruction": 7737,
  "\u2581worms": 15255,
  "\u2581ladder": 9537,
  "tituted": 28141,
  "\u2581conflict": 3738,
  "\u2581ignited": 21397,
  "\u2581appearance": 2313,
  "kti": 21464,
  "cera": 18359,
  "\u2581slaughtered": 22046,
  "\u2581evacuated": 12379,
  "\u2581dragons": 7628,
  "\u2581firstly": 14849,
  "\u2581branding": 15142,
  "\u2581enforce": 15308,
  "\u2581captured": 3112,
  "\u2581paste": 18353,
  "\u2581nils": 26284,
  "\u2581agrees": 9219,
  "\u2581depiction": 14923,
  "\u2581hunched": 19500,
  "\u2581grenades": 20916,
  "25": 16790,
  "ert": 7745,
  "\u2581awakened": 19258,
  "week": 27077,
  "\u2581neptune": 20169,
  "\u2581examining": 11845,
  "\u2581mendez": 27952,
  "ele": 11262,
  "\u2581ironic": 18315,
  "\u2581horror": 4471,
  "hat": 11709,
  "\u2581larvae": 8675,
  "itis": 12708,
  "oured": 15779,
  "\u2581keating": 24867,
  "\u2581float": 13259,
  "\u2581carpenter": 9535,
  "\u2581general": 1238,
  "\u2581limp": 13403,
  "ists": 4132,
  "\u2581blindness": 25292,
  "yama": 10615,
  "\u2581blinking": 14999,
  "\u2581fronts": 20432,
  "bby": 13077,
  "\u2581syrup": 22355,
  "\u2581glory": 7296,
  "\u2581recession": 18398,
  "\u2581operators": 8226,
  "\u2581wiggled": 25752,
  "\u2581functioned": 19905,
  "\u09b6": 28912,
  "\u2581correspondent": 10372,
  "\u2581ripping": 16041,
  "\u2581silvia": 26829,
  "\u2581decorate": 28462,
  "rangle": 20478,
  "\u2581plays": 2250,
  "\u2581silicon": 12775,
  "\u2581refrigerator": 17099,
  "\u2581raj": 10950,
  "\u2581president": 1345,
  "\u2581playstation": 8162,
  "\u2581knighted": 18574,
  "\u2581km\u00b2": 2188,
  "\u2581collateral": 23174,
  "\u2581smashing": 20107,
  "\u2581seventeenth": 14427,
  "\u2581new": 1050,
  "\u2581affirmative": 26354,
  "\u2581donkey": 19327,
  "wall": 8630,
  "\u2581alerted": 21335,
  "\u2581felicity": 26359,
  "mus": 6608,
  "ital": 17402,
  "\u2581exploits": 19399,
  "\u2581foreigners": 14042,
  "\u2581vivid": 13956,
  "\u2581lazy": 12973,
  "\u2581poke": 25204,
  "cot": 23312,
  "tical": 13658,
  "\u2581facilities": 3130,
  "\u2581agustin": 25891,
  "\u2581\u09ac": 371,
  "\u2581almighty": 25670,
  "\u2581shoved": 6470,
  "\u2581votes": 3496,
  "\u2581dietary": 22446,
  "\u2581subdivision": 11574,
  "\u2581science": 1673,
  "\u2581breast": 6390,
  "\u2581promotional": 9321,
  "\u2581occurred": 3160,
  "\u2581procedural": 23510,
  "\u2581fabrics": 24125,
  "\u2581dart": 13959,
  "ractive": 25886,
  "\u2581commissioner": 4851,
  "\u2581batavia": 27919,
  "\u2581uganda": 9033,
  "\u2581captained": 15043,
  "\u2581\u79be": 930,
  "\u2581lucan": 19766,
  "\u2581heller": 24040,
  "\u2581none": 2906,
  "\u2581revisions": 23701,
  "\u2581rip": 9975,
  "cellular": 15884,
  "\u2581questions": 2982,
  "\u2581fisted": 27275,
  "\u2581hometown": 8629,
  "\u2581practice": 2220,
  "\u2581strolled": 19356,
  "\u2581baritone": 13460,
  "\u738b": 29437,
  "\u2581psi": 16818,
  "\u2581warren": 5033,
  "\u2581whore": 16221,
  "\u2581sights": 14927,
  "\u2581$": 5,
  "\u25811665": 26678,
  "\u2581protruding": 22870,
  "\u2581shepard": 21191,
  "\u2581increased": 2447,
  "\u30a3": 29222,
  "\u2581transitions": 21168,
  "\u4ee3": 29288,
  "\u2581are": 1027,
  "\u2581arch": 6907,
  "\u2581waterfall": 13299,
  "\u2581aux": 18556,
  "\u2581dundee": 13254,
  "clops": 27661,
  "\u2581grupo": 25680,
  "\u2581everest": 22916,
  "\u2581hectares": 8078,
  "\u2581guardian": 5699,
  "\u2581gambia": 25730,
  "\u2581those": 1218,
  "manship": 20532,
  "\u2581lane": 3646,
  "\u2581scientology": 22847,
  "\u2581helium": 21766,
  "\u2581guarding": 16021,
  "hila": 25417,
  "\u2581mushrooms": 22829,
  "\u2581abrams": 22065,
  "\u2581prospects": 15748,
  "\u2581\u057a": 236,
  "\u2581kosovo": 10493,
  "\u2581locking": 13891,
  "\u2581earned": 2689,
  "\u2581sweaty": 18891,
  "\u2581tops": 12286,
  "aks": 28245,
  "\u2581padre": 27614,
  "\u209b": 29100,
  "\u2581las": 4871,
  "\u2581philology": 28288,
  "\u2581crazy": 3691,
  "\u2581hike": 20859,
  "\u2581together": 1364,
  "\u2581770": 28067,
  "\u2581\u062f": 281,
  "\u2581zhou": 13369,
  "\u2581grams": 19374,
  "\u2581william": 1522,
  "\u2581caliber": 14979,
  "\u2581excuses": 20919,
  "\u2581alma": 10348,
  "\u2581castillo": 18373,
  "\u2581dominion": 12740,
  "\u2581\u300f": 647,
  "\u2581patented": 15721,
  "\u2581bags": 7643,
  "\u2581rulers": 10119,
  "\u2581magnate": 26472,
  "\u2581captivity": 15189,
  "24": 17829,
  "\u2581greece": 4485,
  "\u2581beaches": 11214,
  "\u2581verse": 6895,
  "\u2581maternal": 10064,
  "\u2581trustees": 8362,
  "\u2581ordering": 12065,
  "\u2581mondays": 27403,
  "\u2581fabio": 24618,
  "\u2581tag": 5417,
  "\u2581flashing": 11661,
  "\u2581sculpture": 5745,
  "jan": 7407,
  "\u2581honors": 6838,
  "\u2581dungeon": 15635,
  "\u2581intimidation": 27975,
  "\u2581remixed": 16576,
  "\u2581\u0433": 186,
  "hre": 27364,
  "\u2581archibald": 14919,
  "\u2581alternating": 14124,
  "making": 11616,
  "\u2581\u0926": 328,
  "\u2581textures": 28345,
  "taken": 24312,
  "\u2581perennial": 13640,
  "let": 6487,
  "rell": 15232,
  "\u2581leipzig": 10224,
  "\u2581amelia": 10558,
  "\u2581landowners": 19154,
  "\u2581basel": 13042,
  "\u2581\u1d56": 507,
  "\u2581briefs": 27762,
  "\u2581likewise": 9657,
  "\u0f44": 28965,
  "\u2581original": 1436,
  "\u2581bologna": 13104,
  "\u2581arab": 4426,
  "\u2581highlighting": 19657,
  "\u2581playoffs": 6557,
  "\u2581\u5e74": 843,
  "\u2581republics": 23824,
  "\u2581cardboard": 18749,
  "\u2581convent": 9666,
  "\u2581nuevo": 21252,
  "\u2581\u8c9d": 955,
  "\u2581chilean": 11093,
  "\u2581pulsed": 23109,
  "\u2581coveted": 27823,
  "\u2581fools": 17658,
  "\u2581fiscal": 9809,
  "\u2581slick": 12556,
  "\u2581mig": 18119,
  "\u2581dagger": 9796,
  "won": 18293,
  "\u2581electrification": 22681,
  "\u2581commune": 4717,
  "\u2581conversion": 6586,
  "\u2581anhalt": 26090,
  "neck": 17280,
  "ality": 22734,
  "\u2581complementary": 20055,
  "\u2581deviation": 23355,
  "\u2581refuge": 8279,
  "tish": 23790,
  "\u2581enables": 11941,
  "\u2581drafting": 20170,
  "ride": 14639,
  "pheus": 21811,
  "\u2581pocket": 3981,
  "\u2581extensively": 7079,
  "\u2581underwood": 21753,
  "\u2581library": 2077,
  "\u2581bone": 4925,
  "\u2581superb": 20690,
  "\u2581meant": 2216,
  "\u2581timetable": 22841,
  "\u2581camille": 15677,
  "\u2581singapore": 4266,
  "\u2581vision": 3434,
  "\u2581connector": 18402,
  "\u2581tran": 24285,
  "\u2581sharif": 19353,
  "\u2581beethoven": 14463,
  "\u2581composer": 3545,
  "pathic": 24942,
  "\u2265": 29138,
  "\u2581baden": 11191,
  "\u51fa": 29302,
  "\u2581practically": 7136,
  "\u2581convict": 19464,
  "ria": 3362,
  "\u2581hilltop": 24568,
  "\u2581enemies": 5718,
  "\u2581nearest": 6207,
  "wicz": 20357,
  "\u2581salsa": 25511,
  "bruck": 27987,
  "\u2581podcast": 15112,
  "\u2581le": 2395,
  "\u2581takes": 2140,
  "\u2581acceptable": 10703,
  "\u2581accession": 15995,
  "\u00e6": 28669,
  "\u2581takeoff": 18746,
  "\u2581horseshoe": 22451,
  "\u2581praises": 26130,
  "osi": 19051,
  "logical": 8968,
  "\u2581unacceptable": 20875,
  "\u2581transvaal": 27338,
  "zai": 24292,
  "\u11a8": 29022,
  "film": 22667,
  "\u2581cannes": 13777,
  "\u2581journalist": 3990,
  "\u2581perception": 9619,
  "haw": 13240,
  "\u2581bandit": 24336,
  "\u2581behavior": 4250,
  "\u25811876": 6328,
  "\u2581521": 25965,
  "\u2581mustafa": 18685,
  "\u2581lighthouse": 9173,
  "\u2581investigate": 7558,
  "\u2581cinematographer": 18247,
  "\u25811785": 16264,
  "\u2297": 29142,
  "uated": 15455,
  "\u0643": 28837,
  "\u2581expectations": 9910,
  "\u2581\u4e5f": 753,
  "\u2581sweetie": 21874,
  "\u2581talks": 6568,
  "\u2581occurrences": 26249,
  "\u2581discarded": 14107,
  "\u2581sidekick": 28242,
  "\u2581orphan": 17213,
  "\u2581shorter": 6822,
  "\u2581improvements": 7379,
  "\u2581\u11a8": 487,
  "\u2581maori": 11602,
  "\u2581ja": 13857,
  "\u2581balls": 6397,
  "\u2581xiang": 26737,
  "\u2581counterparts": 13564,
  "\u2581artifact": 19787,
  "\u2581vacant": 9032,
  "\u2581\u4ee3": 763,
  "\u2581listening": 4964,
  "\u2581naming": 9326,
  "mme": 19060,
  "\u2581seneca": 20226,
  "\u2581towed": 17950,
  "\u2581obituary": 19817,
  "\u2581alberta": 6651,
  "\u2581lou": 9225,
  "\u2581david": 1587,
  "\u043d": 17949,
  "\u2581brazil": 3382,
  "\u2581ties": 6210,
  "\u2581proportional": 13269,
  "\u2581today": 1653,
  "\u2581insistent": 28206,
  "\u2581promising": 9017,
  "\u2581downwards": 27459,
  "\u2581overturned": 16070,
  "\u25811904": 4694,
  "christ": 25656,
  "\u2581reprise": 15853,
  "\u2581circled": 13869,
  "\u2581orchestrated": 22341,
  "\u2581pool": 3772,
  "\u2581d": 43,
  "\u2581culminating": 15981,
  "tension": 28050,
  "\u2581diversified": 23910,
  "\u2581gaped": 22834,
  "\u2581disease": 3297,
  "\u2581descends": 22330,
  "vron": 27590,
  "\u2581manufacturers": 7714,
  "\u2581matthew": 4489,
  "ners": 15914,
  "\u2581sava": 27352,
  "\u2581mic": 22027,
  "\u1106": 28997,
  "\u2581640": 18716,
  "\u2581promo": 18432,
  "\u2581induced": 9574,
  "\u2581sobs": 20505,
  "\u2581enjoy": 4961,
  "rane": 17055,
  "\u2581qualifications": 14646,
  "ganj": 21740,
  "\u2581mukherjee": 26042,
  "\u2581armando": 25718,
  "\u2581195": 16319,
  "\u2581cove": 10823,
  "\u2581nodded": 2370,
  "\u2581saliva": 25310,
  "\u2581convicts": 23950,
  "\u2581packard": 23102,
  "\u2581approved": 3846,
  "\u25811679": 26926,
  "\u2581rude": 11728,
  "\u2581beverly": 11220,
  "\u2581accidentally": 8556,
  "\u25811719": 27164,
  "\u2581surroundings": 10303,
  "\u2581consequently": 7823,
  "\u2581charged": 4340,
  "\u2581anything": 1507,
  "bush": 21429,
  "\u7fa9": 29464,
  "fles": 27333,
  "ades": 17675,
  "\u2581sony": 7414,
  "\u05de": 28803,
  "\u2581danes": 26478,
  "\u2581ds": 15235,
  "\u2581protests": 7092,
  "kushima": 23919,
  "cans": 25644,
  "med": 6585,
  "\u2581eki": 22176,
  "\u2581exodus": 15390,
  "\u2581710": 26673,
  "\u2581resolutions": 17855,
  "xie": 15900,
  "\u2581clements": 27574,
  "loh": 23731,
  "\u2581hiring": 13765,
  "\u2581sven": 20315,
  "vez": 25134,
  "\u2581plata": 18536,
  "\u2581ninety": 12570,
  "\u2581penguin": 12989,
  "gly": 24645,
  "\u2581frazier": 25553,
  "es": 1231,
  "\u2581sultanate": 20310,
  "\u2581research": 1472,
  "\u2581sync": 25353,
  "\u2581storyline": 8996,
  "rained": 26363,
  "\u2581lowry": 26283,
  "\u2581divert": 26347,
  "\u2581infiltrate": 28545,
  "\u2581commemorative": 16526,
  "\u2581jumps": 13525,
  "\u2581bus": 2904,
  "\u2581recent": 2524,
  "iss": 13645,
  "\u2581constitute": 11348,
  "\u0630": 28824,
  "uttered": 22130,
  "\u2581matter": 2045,
  "\u25812010s": 25819,
  "\u2090": 29091,
  "\u25811955": 2984,
  "ci": 5897,
  "\u2581liter": 22677,
  "\u2581ultraviolet": 25301,
  "\u2581spencer": 6086,
  "\u2581sms": 21436,
  "\u2581enhanced": 8414,
  "\u10d1": 28977,
  "\u2581williams": 2768,
  "\u2581bloomfield": 24586,
  "kle": 18101,
  "\u2581glared": 8402,
  "\u2581geared": 22638,
  "orra": 23287,
  "\u2581cappella": 22015,
  "\u2581andrew": 3082,
  "wang": 15602,
  "\u2581flexed": 23246,
  "rt": 4341,
  "\u2581dauphin": 28104,
  "\u2581full": 1442,
  "\u2581computed": 23808,
  "\u2581bazaar": 21776,
  "\u2581jameson": 21326,
  "\u258133": 2945,
  "\u2581metacritic": 13478,
  "yr": 11543,
  "\u2581liver": 10292,
  "\u2581radiation": 7251,
  "\u2581longitudinal": 19136,
  "\u2581demonstrate": 9582,
  "\u2581veterinary": 14653,
  "\u2581bel": 18339,
  "\u2581row": 4218,
  "\u2581loan": 4416,
  "\u2581harvard": 4767,
  "\u2581\u30d5": 723,
  "lica": 18343,
  "\u2581enamel": 28486,
  "ental": 20052,
  "\u2581friendships": 27958,
  "\u2581seventeen": 8173,
  "kei": 28503,
  "\u25811716": 27206,
  "\u2581tentatively": 18327,
  "\u2581barrio": 24678,
  "\u2581transverse": 17325,
  "ige": 24540,
  "\u2581idiots": 27783,
  "bala": 24062,
  "ited": 16574,
  "\u2581tasmanian": 20396,
  "\u2581distracting": 24014,
  "as": 2024,
  "\u2581northeast": 3796,
  "\u2581\u624b": 861,
  "\u2581otherwise": 3730,
  "\u2581flourishing": 28573,
  "\u2581versatile": 21981,
  "\u2581unitarian": 24479,
  "\u2581tossed": 6465,
  "now": 18781,
  "\u2581al": 1634,
  "\u2581suspicious": 9029,
  "\u2581\u8c37": 954,
  "uj": 22051,
  "\u2581hk": 21565,
  "\u2581truncated": 24451,
  "\u2581keeping": 3365,
  "lance": 22080,
  "\u2581indicated": 4395,
  "hale": 14240,
  "\u30a4": 29223,
  "\u2581propeller": 14694,
  "\u2581\u7530": 914,
  "\u2581highness": 16116,
  "edance": 28607,
  "\u2581apostles": 18180,
  "\u2581restoration": 5420,
  "\u2581metres": 2622,
  "phate": 23558,
  "\u2581nicholas": 5143,
  "\u2581skeleton": 12528,
  "\u2581prop": 16680,
  "\u2581brazilian": 5144,
  "dicate": 15469,
  "\u2581trees": 2630,
  "\u2581whirled": 16099,
  "\u91d1": 29492,
  "\u2581canadiens": 20249,
  "\u2581ants": 15113,
  "icia": 23110,
  "\u2581courtney": 13141,
  "\u2581shelby": 14296,
  "avian": 20656,
  "tative": 26455,
  "\u2581abolition": 14768,
  "\u2581cheltenham": 17765,
  "\u2581famously": 17174,
  "\u2581griffin": 8260,
  "\u2581welding": 22606,
  "\u2581jubilee": 12080,
  "ty": 2725,
  "\u2581\u6625": 870,
  "\u2581pic": 26265,
  "\u2581mca": 21434,
  "\u2581athena": 20882,
  "\u2581lorenzo": 11486,
  "\u2581drawing": 4061,
  "\u2581forbes": 9824,
  "\u2581\u524d": 779,
  "\u2581timbers": 25240,
  "mic": 6714,
  "\u2581crossbow": 27694,
  "\u2581spur": 11998,
  "\u2581skins": 20051,
  "\u2581rampage": 28218,
  "nberger": 27827,
  "\u2581diverse": 6580,
  "\u2581eight": 1811,
  "\u2581vassal": 23353,
  "nir": 28341,
  "\u2581initiation": 16892,
  "\u2581receptors": 12835,
  "\u2581\u0635": 287,
  "\u2581baptised": 27800,
  "ility": 14150,
  "\u2581ripe": 21505,
  "\u2581masterpiece": 16745,
  "\u2581canada": 1712,
  "\u2581performing": 3490,
  "\u2581solemnly": 25296,
  "\u2581sonic": 11730,
  "\u2581gentleman": 9172,
  "\u2581jasper": 13793,
  "ryl": 22322,
  "\u05d8": 28797,
  "\u2581cuff": 25452,
  "\u2581rumble": 14660,
  "\u2581axel": 17588,
  "\u2581pilgrim": 20216,
  "\u2581fra": 24314,
  "\u2581texas": 2148,
  "\u2581domingo": 14588,
  "\u2581banded": 24266,
  "\u2581\u27e9": 633,
  "\u2581exhibits": 9639,
  "\u2581mankind": 13940,
  "\u671d": 29402,
  "\u044d": 28758,
  "\u2581\u304b": 654,
  "\u2581relegated": 6051,
  "\u2581supplemental": 26026,
  "\u2581sherman": 10013,
  "tov": 25527,
  "\u2581\u1d2c": 493,
  "\u2581numerical": 14975,
  "\u2581become": 1470,
  "arus": 28135,
  "\u2581residents": 2903,
  "\u2581shade": 7705,
  "\u2581surprises": 19098,
  "\u2581neurological": 22132,
  "\u611b": 29381,
  "\u25811811": 12088,
  "\u2581flat": 3259,
  "\u2581properties": 4146,
  "\u2581survived": 4177,
  "\u2581painting": 3171,
  "\u2581reserved": 8237,
  "\u2581markers": 15389,
  "\u2581ops": 22094,
  "\u2581dwell": 22122,
  "\u2581putnam": 19232,
  "\u2581trevor": 7674,
  "\u2581\u0142odz": 16816,
  "\u2581familiarity": 23668,
  "\u2581ever": 1414,
  "\u2581warily": 22627,
  "itz": 7840,
  "\u2581perrin": 27108,
  "\u2581santana": 20160,
  "\u2581reprised": 21600,
  "oshi": 23305,
  "\u2581especially": 1928,
  "\u2581basis": 2980,
  "\u2581coach": 1875,
  "\u2581settling": 8855,
  "\u2581unused": 14173,
  "\u2581hills": 3566,
  "\u2581remedy": 18521,
  "ional": 18303,
  "\u2581strengthening": 15005,
  "\u2581damp": 9622,
  "pu": 13291,
  "\u2581vijay": 16029,
  "\u2581coop": 20861,
  "cating": 17254,
  "\u2581terence": 21679,
  "eau": 9209,
  "\u2581seeing": 2775,
  "icle": 24130,
  "\u2581replaced": 2001,
  "\u2581braves": 12982,
  "\u2581untitled": 23821,
  "\u2581shortage": 14845,
  "gawa": 20190,
  "mont": 8631,
  "\u2581dash": 10456,
  "\u2581outgoing": 21013,
  "\u2581artillery": 3895,
  "\u2581\u0d9a": 406,
  "\u10d7": 28982,
  "\u2217": 29127,
  "\u2581confessions": 20446,
  "\u2581petra": 19955,
  "\u2581compared": 3104,
  "\u2581admitted": 3916,
  "rce": 18172,
  "\u300f": 29172,
  "\u2581clearance": 13862,
  "\u2581lead": 1601,
  "\u2581goo": 26573,
  "\u2581decor": 24547,
  "ntation": 22438,
  "\u2581garry": 20509,
  "\u2581austria": 4120,
  "\u2581canned": 26143,
  "\u2581rm": 27551,
  "arding": 28156,
  "\u2581calmly": 11887,
  "\u2581talking": 2333,
  "\u2581mommy": 19567,
  "\u2581sharpe": 21149,
  "\u2581jupiter": 12037,
  "zzo": 11038,
  "igh": 17379,
  "\u2581junction": 4100,
  "\u2581aggressive": 8378,
  "\u2581wish": 3301,
  "\u2581absurd": 17693,
  "\u2581schools": 1818,
  "\u2581nord": 12928,
  "\u2581mattered": 12838,
  "\u2581byron": 11236,
  "\u2581g": 46,
  "sters": 14610,
  "\u2581ella": 10715,
  "\u2581bring": 2290,
  "\u2581soo": 16113,
  "\u2581lost": 1441,
  "\u2581stem": 6874,
  "nets": 21783,
  "oic": 18421,
  "\u2581music": 1191,
  "\u2581commanding": 6993,
  "\u2581233": 21117,
  "30": 13144,
  "\u2581versa": 17603,
  "\u2581reacted": 13833,
  "stic": 9076,
  "nia": 5202,
  "\u2581maynard": 21132,
  "\u2581carriers": 10365,
  "\u2581groningen": 28072,
  "\u2581phenomena": 12354,
  "\u677e": 29408,
  "\u2581reconcile": 20065,
  "\u2581straps": 18704,
  "\u2581thom": 18440,
  "\u2581shut": 2846,
  "\u2581controls": 6713,
  "\u2581migrating": 27638,
  "\u2581compound": 6330,
  "\u2581disappointment": 9522,
  "\u258174": 5358,
  "\u2581sara": 6356,
  "\u2581life": 1168,
  "\u2581household": 3400,
  "chel": 14723,
  "\u2581\u1d43": 499,
  "\u2581peered": 9759,
  "\u266f": 29156,
  "\u2581dramatic": 5920,
  "\u258182": 5447,
  "\u2581wrongly": 28118,
  "ices": 22524,
  "\u2581kazan": 21003,
  "\u2581olympiad": 24227,
  "ng": 2072,
  "\u2581mariana": 21099,
  "\u2581hangul": 18053,
  "power": 10454,
  "\u2581rust": 17401,
  "\u2581sometimes": 1825,
  "\u2581substantive": 26739,
  "\u2581ethanol": 21888,
  "\u2581airfields": 24280,
  "\u2581amar": 22206,
  "\u2581sabotage": 19225,
  "\u2581honorary": 4758,
  "\u2581guarded": 12804,
  "hc": 15259,
  "\u2581pentagon": 19866,
  "\u2581451": 27163,
  "air": 10217,
  "\u062a": 28819,
  "\u2581enclosed": 9839,
  "\u2581slung": 19080,
  "\u2581handicapped": 25922,
  "\u2581receipt": 23308,
  "\u2581washed": 7873,
  "\u2581recruitment": 14682,
  "\u2581eliza": 12236,
  "\u2581postal": 9692,
  "\u2581sicily": 11073,
  "\u2581motor": 4015,
  "\u0280": 28695,
  "\u258100pm": 26997,
  "\u2581turnout": 14514,
  "\u2581bing": 16622,
  "\u2581lacked": 9860,
  "\u2581wit": 14968,
  "\u2581instincts": 15162,
  "\u2581applicable": 11713,
  "\u2581writers": 3900,
  "\u2581\u0250": 112,
  "slow": 25340,
  "\u2581scooted": 23291,
  "\u2581spend": 4249,
  "\u2581emails": 21030,
  "\u2581introduce": 7972,
  "\u2581notre": 9291,
  "\u2581afro": 16696,
  "\u2581nationalist": 7988,
  "\u2581portfolio": 10105,
  "\u2581\u3055": 659,
  "\u2581regaining": 27659,
  "\u2581parry": 19805,
  "\u2581envisioned": 17037,
  "\u2581hugging": 16664,
  "\u2581wasted": 12844,
  "\u2581invaded": 9838,
  "cine": 15569,
  "\u2581highly": 2813,
  "\u221a": 29129,
  "vita": 27405,
  "\u2581detroit": 4628,
  "\u0bc7": 28936,
  "\u2581success": 2114,
  "pid": 22269,
  "\u2581wheelchair": 12206,
  "\u2581seriously": 4669,
  "\u2581\u2206": 597,
  "\u2581alert": 8501,
  "\u2581bernard": 5797,
  "\\": 28637,
  "liga": 13717,
  "andra": 28161,
  "\u2581households": 2913,
  "\u2581family": 1157,
  "\u2581napoleon": 7893,
  "\u2581pi": 13257,
  "\u2581spontaneous": 16632,
  "unk": 15816,
  "ological": 9093,
  "\u2581riots": 11927,
  "\u2581miniseries": 12614,
  "\u2581mg": 10462,
  "\u2581blackened": 24790,
  "rae": 15654,
  "ili": 17624,
  "\u2581coughed": 18057,
  "\u2581neuroscience": 22702,
  "\u2581melt": 13901,
  "rel": 15572,
  "\u2581paraguay": 12886,
  "\u2581museo": 18715,
  "\u2581different": 1369,
  "\u2581mcqueen": 28267,
  "\u2581backstage": 19214,
  "\u2581outstretched": 20061,
  "\u2581terribly": 15670,
  "\u2581crewe": 21190,
  "ids": 8823,
  "eurs": 25746,
  "\u2581resented": 26190,
  "\u2581ambiguous": 19082,
  "wide": 21519,
  "\u2581fourth": 1961,
  "berry": 8768,
  "\u2581custody": 8970,
  "\u2581thankful": 17838,
  "\u2581endowed": 18040,
  "wave": 15537,
  "\u2581strongest": 9475,
  "\u2581antigen": 27875,
  "\u2581admits": 13458,
  "\u2581graffiti": 16992,
  "\u9053": 29485,
  "\u2581ridge": 4528,
  "\u2581genome": 12460,
  "\u2581concentrations": 13063,
  "\u2581thistle": 23330,
  "test": 21201,
  "\u2581confederates": 23629,
  "\u2581apprehension": 24811,
  "\u2581knots": 8441,
  "18": 14138,
  "dable": 19784,
  "\u2581knew": 1356,
  "mbre": 18910,
  "\u2581globalization": 23372,
  "\u2581mentoring": 28194,
  "\u2581hardcover": 19992,
  "titles": 26432,
  "\u2581cb": 16326,
  "\u2581motorcycle": 8057,
  "\u2581defaulted": 16267,
  "\u2581libel": 25203,
  "\u2581wanna": 9589,
  "\u2581presidency": 7800,
  "shu": 13237,
  "\u2581diagnosis": 10618,
  "\u2581twenty20": 21242,
  "\u2581nbl": 27015,
  "\u2581fusion": 9079,
  "\u2581greet": 16023,
  "\u2581mess": 5754,
  "\u2581susan": 5296,
  "dog": 15170,
  "\u2581exams": 12871,
  "\u2581catherine": 5617,
  "\u2581arctic": 9164,
  "\u2581living": 1544,
  "\u2581mind": 1570,
  "\u2581wayne": 5161,
  "\u2581russ": 17074,
  "bain": 28150,
  "spar": 26696,
  "\u2581hirsch": 27129,
  "\u2581railways": 6113,
  "\u2581transmissions": 20672,
  "e": 1066,
  "\u2581bounded": 9353,
  "ahl": 27085,
  "\u2581rebelled": 24185,
  "kr": 20640,
  "ime": 13430,
  "\u2581dukes": 15608,
  "\u2581emerson": 11630,
  "\u2581promotion": 3714,
  "\u2581andersen": 17310,
  "\u2581\u6c38": 899,
  "\u2581rider": 6947,
  "nko": 15109,
  "\u2581sp": 10869,
  "\u2581resides": 10667,
  "\u2581aerospace": 12397,
  "\u2581accredited": 10461,
  "\u2581allocation": 15171,
  "\u2581lines": 2212,
  "\u2581receiving": 3911,
  "dian": 10694,
  "\u2581scarred": 20987,
  "\u2581promenade": 25817,
  "\u2581tasting": 17769,
  "\u2581goofy": 26245,
  "\u2581scope": 8533,
  "\u2581wrinkled": 14970,
  "\u2581considers": 9594,
  "\u2581defensive": 4602,
  "\u2581smell": 4439,
  "\u2581piedmont": 17875,
  "\u2581fox": 3421,
  "\u2581undermine": 24176,
  "\u2581successively": 23290,
  "\u2581remember": 2344,
  "1": 1489,
  "\u2581ticket": 6283,
  "hema": 27435,
  "\u099b": 28895,
  "\u25811866": 6649,
  "\u2581invasive": 16505,
  "\u2581rq": 27136,
  "\u2581auditioned": 22010,
  "\u2581interested": 3701,
  "\u2581values": 4302,
  "\u2581cell": 2528,
  "\u2581vaults": 27660,
  "\u2581hindwings": 15000,
  "\u2581shortstop": 24361,
  "\u2581missiles": 9817,
  "\u2581objection": 21226,
  "\u2581lowered": 5670,
  "\u2581salvador": 9584,
  "\u2581barbara": 5439,
  "\u2581rotherham": 26458,
  "\u2581baroness": 20481,
  "\u2581soft": 2732,
  "\u2581humiliating": 27286,
  "osis": 11652,
  "\u2581justine": 25379,
  "\u2581impetus": 26963,
  "\u2581panther": 14135,
  "\u2581cord": 10603,
  "\u2581cup": 1454,
  "\u2581ample": 19853,
  "\u2581programmers": 27549,
  "\u2581sink": 6754,
  "\u2581socio": 16524,
  "ddled": 27092,
  "\u2581modify": 18935,
  "\u2581tokyo": 4524,
  "cor": 26110,
  "\u2581pa": 5645,
  "\u2581strikers": 25051,
  "\u2581trainer": 9367,
  "\u2581citizenship": 8070,
  "\u2581tooth": 10870,
  "\u2581lovers": 9207,
  "\u2581gown": 10741,
  "\u2581pistols": 17250,
  "\u2581masonry": 17105,
  "\u2581assured": 7918,
  "\u2581policeman": 13462,
  "\u2581verbs": 15027,
  "\u2581natasha": 16401,
  "\u2581retain": 8281,
  "\u2581delightful": 25382,
  "\u2581levy": 11769,
  "\u2581dipping": 22429,
  "\u2581bananas": 25193,
  "\u2581gradually": 5362,
  "\u2581elderly": 8752,
  "\u2581carr": 11387,
  "\u2581iowa": 4949,
  "\u2581proctor": 27772,
  "viere": 26089,
  "\u2581inaugurated": 10072,
  "\u2581ashok": 27918,
  "\u2581stillness": 28437,
  "\u2581harassment": 15013,
  "\u2581denotes": 13798,
  "\u2581hindu": 6562,
  "fan": 14145,
  "\u2581adolescence": 28103,
  "\u2581drawn": 3569,
  "\u2581sutton": 10177,
  "\u2581assigns": 23024,
  "\u2581blinding": 18711,
  "\u2581wreckage": 20058,
  "bry": 24733,
  "\u2581orbital": 12945,
  "\u091f": 28858,
  "\u2581chihuahua": 27482,
  "\u2581nikolay": 27496,
  "\u2581madeira": 26311,
  "\u2581\u306f": 675,
  "\u09ad": 28907,
  "\u2581turk": 21885,
  "cken": 18768,
  "\u2581motown": 21656,
  "\u2581indication": 11409,
  "\u2581dismissed": 6221,
  "\u2581\u0cbe": 405,
  "\u2581monica": 8020,
  "\u2581drums": 2848,
  "\u2581treacherous": 25650,
  "\u2581favorites": 19674,
  "\u2581mantle": 15021,
  "\u2581dissolved": 7316,
  "pse": 28253,
  "\u2581h\u2082o": 23835,
  "\u2581replace": 4674,
  "illon": 19345,
  "\u2581expanding": 8188,
  "\u2581conquest": 8189,
  "\u2581somebody": 7309,
  "\u2581dancing": 4615,
  "\u2581khyber": 27418,
  "\u2581lifespan": 25464,
  "dek": 23465,
  "ception": 23424,
  "\u2581bathing": 16575,
  "\u2581embarrassing": 15438,
  "\u2581operatives": 24633,
  "\u2581percent": 2869,
  "lion": 17966,
  "\u2581blah": 26986,
  "koto": 23888,
  "\u2581frogs": 16584,
  "\u2581\u2265": 612,
  "\u25811621": 26039,
  "\u2581louis": 2436,
  "\u2581\u4f1a": 766,
  "\u2581solid": 4026,
  "\u2581aggression": 13976,
  "aceous": 24562,
  "s\u0142aw": 22307,
  "yt": 21125,
  "\u2581buddies": 23117,
  "\u2581kickoff": 24235,
  "\u2581melee": 26870,
  "\u25812003": 1496,
  "\u2581batman": 7944,
  "\u2581volcano": 11781,
  "\u2581cherokee": 12798,
  "\u2581october": 1257,
  "\u2581commodity": 18504,
  "\u2581empress": 9250,
  "\u2581lateral": 10459,
  "\u2581dan": 3909,
  "\u2581llc": 10777,
  "\u2581philippine": 6804,
  "\u2581key": 2147,
  "\u2581century": 1303,
  "\u30a7": 29225,
  "\u2581contexts": 17048,
  "\u2581tinted": 24579,
  "\u7530": 29439,
  "\u2581mental": 4179,
  "\u2581lorraine": 12897,
  "\u2581mitsubishi": 18697,
  "\u2581bard": 21761,
  "\u2581almeida": 28557,
  "\u2581fluttering": 24003,
  "iana": 10412,
  "ttering": 18569,
  "may": 26873,
  "\u2581visitors": 4733,
  "\u2581connie": 15562,
  "\u2581erwin": 21211,
  "lton": 12949,
  "\u2581pac": 13399,
  "\u2581dunkirk": 28469,
  "\u2581documentaries": 14695,
  "lation": 12492,
  "hiti": 26800,
  "\u2581thorn": 15339,
  "\u2581coarse": 19394,
  "\u2581elevated": 7321,
  "\u2581demi": 26670,
  "\u2581walker": 4234,
  "ites": 6618,
  "\u2581klein": 11557,
  "\u2581increases": 6459,
  "\u2581infants": 15727,
  "\u2581sisters": 4210,
  "\u2581telescopes": 27028,
  "\u2581biggest": 4223,
  "\u2581never": 1198,
  "\u5ca1": 29360,
  "\u25811870s": 13898,
  "\u2581benefit": 4772,
  "\u2581reformer": 23769,
  "\u2581squire": 20265,
  "\u2581fai": 25210,
  "pala": 18638,
  "\u2581servants": 7860,
  "\u2581reinstated": 17673,
  "dp": 17929,
  "\u2581nose": 3453,
  "\u2581patents": 12981,
  "\u2581shoulders": 3067,
  "\u2581pseudonym": 12883,
  "\u2581loyola": 20582,
  "\u2581\u10d2": 443,
  "plify": 27252,
  "\u2581aluminium": 13796,
  "\u2581trailer": 8119,
  "osaurus": 24769,
  "\u25811993": 1859,
  "tty": 14355,
  "isto": 19485,
  "\u2581honneur": 27199,
  "\u2581finishes": 11323,
  "\u2581rossi": 17453,
  "\u2581veracruz": 22743,
  "\u2581adoption": 8888,
  "stle": 21518,
  "\u2581kilograms": 17859,
  "kiewicz": 27565,
  "\u2581attribute": 16963,
  "\u2581toulouse": 16211,
  "\u2581madagascar": 10936,
  "wil": 28604,
  "\u2581variation": 7388,
  "\u2581rule": 2629,
  "\u2581proxy": 23542,
  "\u2581bailey": 7927,
  "\u2581juicy": 27902,
  "\u25811827": 11311,
  "\u2581flanders": 13000,
  "\u2581happened": 2049,
  "\u2581mystic": 16479,
  "\u25811100": 21098,
  "\u2581jp": 15547,
  "\u2581reorganisation": 23936,
  "\u2581650": 12759,
  "\u2581charms": 23046,
  "\u2581boasted": 22392,
  "\u2581eighties": 26692,
  "\u5408": 29320,
  "\u2581centralized": 21495,
  "\u2581\u0bbf": 399,
  "stein": 7604,
  "rs": 1871,
  "\u2581astrid": 26378,
  "\u2581stumbled": 8847,
  "\u2581nueva": 23538,
  "\u2581doubling": 18385,
  "\u2581injury": 3546,
  "\u2581brace": 16182,
  "\u2581distress": 11895,
  "\u2581conception": 12122,
  "\u2581purification": 27408,
  "taking": 16906,
  "\u2581ari": 9490,
  "liest": 20294,
  "\u2581dung": 28330,
  "jevic": 25784,
  "\u2581marxism": 26257,
  "eli": 19808,
  "\u2581unlimited": 13670,
  "\u2581highlighted": 10550,
  "\u2581iq": 25266,
  "\u2581paris": 2002,
  "\u2581ticked": 25021,
  "\u2581comedy": 3040,
  "\u2581elected": 1702,
  "\u2581although": 1350,
  "\u2581reviewers": 14816,
  "\u2581variance": 22286,
  "acy": 14721,
  "gh": 4605,
  "\u4f8d": 29293,
  "fer": 6514,
  "\u2581\u4e16": 748,
  "\u2581mouths": 14078,
  "ostal": 28383,
  "\u2581kunst": 27147,
  "\u0e01": 28947,
  "\u2581domesday": 21312,
  "\u2581barking": 18374,
  "\u2581tournaments": 7506,
  "\u110f": 29004,
  "\u2581garland": 16019,
  "\u2581pork": 14962,
  "\u2581carl": 4531,
  "\u2581rodgers": 14654,
  "irus": 25015,
  "bib": 27067,
  "23": 20928,
  "\u2581junior": 2504,
  "\u2581simulator": 24839,
  "\u2581distinctive": 7202,
  "\u2581yet": 1666,
  "\u2581securely": 28001,
  "\u2581achieved": 3721,
  "\u2581lettering": 24784,
  "ene": 7627,
  "wani": 28094,
  "\u2581opus": 15897,
  "\u2581nintendo": 9024,
  "ape": 23067,
  "\u2581backward": 7850,
  "\u2581nuclear": 3519,
  "\u2581paulo": 8096,
  "hearted": 26695,
  "gement": 19513,
  "\u2581marian": 13044,
  "\u2581\u0e25": 421,
  "\u2581territorial": 6896,
  "\u2581dame": 7216,
  "\u2581\u2192": 588,
  "\u2581dialogue": 6984,
  "\u2581adelaide": 6366,
  "\u2581corsica": 26049,
  "\u2581495": 28304,
  "eric": 21422,
  "\u2581erica": 18297,
  "\u2581initiatives": 10109,
  "\u2581vineyards": 19599,
  "\u2581https": 15772,
  "\u2581balcony": 10675,
  "\u2581lindsay": 11112,
  "\u2581bitch": 6745,
  "tagram": 22093,
  "\u2581canal": 4035,
  "\u2581promises": 9661,
  "\u2581baba": 13210,
  "\u2581era": 2692,
  "\u2581kerry": 10262,
  "\u2581shore": 4372,
  "\u2581wa": 10335,
  "\u2581hire": 9889,
  "\u2581ecosystems": 19442,
  "\u2581believers": 19375,
  "utable": 22058,
  "\u2581infringement": 19703,
  "\u2581projectile": 24923,
  "\u2581\u30a8": 701,
  "\u2581classical": 3558,
  "\u2581\u30c1": 713,
  "\u2581unicef": 28075,
  "\u2581stevie": 16460,
  "\u2581elf": 16165,
  "\u2581dormitory": 20540,
  "\u2581abstracts": 28476,
  "\u2581\u05d3": 247,
  "ate": 2688,
  "\u2581offset": 15398,
  "\u2581claremont": 22718,
  "\u2581formal": 4339,
  "\u2581206": 17746,
  "\u2581\u098f": 354,
  "\u2581ru": 20768,
  "\u2581uruguay": 10726,
  "\u2581cradled": 22776,
  "\u2581droplets": 26128,
  "\u2581hepatitis": 27391,
  "\u2581wetland": 21219,
  "\u2581boxed": 26556,
  "\u2581nomadic": 20704,
  "\u2581congressman": 11297,
  "\u2581304": 22861,
  "\u2581bilateral": 16760,
  "\u2581super": 2567,
  "\u2581sharing": 5633,
  "\u2581schoolhouse": 25303,
  "\u2581anterior": 14101,
  "\u2581lyons": 15644,
  "\u2581captive": 11483,
  "\u2581owed": 11234,
  "\u2581guess": 2986,
  "\u6238": 29385,
  "\u2581scripts": 13548,
  "holder": 13530,
  "\u2581photographers": 16010,
  "\u2581\u58eb": 810,
  "\u2581machinery": 9396,
  "yed": 19823,
  "\u2581grove": 6678,
  "\u4e5f": 29278,
  "\u2581synonym": 9677,
  "\u2581frequently": 3705,
  "\u2581themes": 5993,
  "\u2581bb": 21863,
  "bang": 24155,
  "\u2581prussia": 9726,
  "lder": 15504,
  "\u2581peeled": 19958,
  "uw": 24976,
  "\u2581lining": 13836,
  "section": 28017,
  "\u2581urgent": 12663,
  "\u2581tertiary": 12555,
  "\u2581penn": 8504,
  "\u2581lookout": 18054,
  "time": 6294,
  "\u092a": 28866,
  "\u2581strategic": 5145,
  "wives": 22746,
  "\u2581thud": 19607,
  "\u2581kellan": 18699,
  "\u2581praying": 13490,
  "\u2581keller": 15157,
  "\u2581afforded": 21893,
  "\u2581uruguayan": 22466,
  "\u2581racing": 2870,
  "\u2581prepared": 3812,
  "\u2581\u05d6": 250,
  "\u2581sahara": 18606,
  "\u2581historical": 2441,
  "\u2581concacaf": 21171,
  "\u2581\u5b87": 822,
  "\u2581stance": 10034,
  "\u2581nurse": 5823,
  "\u2581coating": 17900,
  "\u2581airlift": 19021,
  "\u2581festivals": 6521,
  "\u2581dread": 13438,
  "\u2581tigers": 6602,
  "\u0e2a": 28958,
  "\u2581applause": 19739,
  "\u2581stabilization": 27717,
  "\u2581run": 1450,
  "asian": 23147,
  "\u2581security": 2038,
  "\u2581marianne": 18889,
  "\u2581jensen": 13859,
  "\u2581flashed": 7375,
  "\u2581atlantis": 15639,
  "riam": 24559,
  "vial": 17662,
  "\u2581grim": 10846,
  "\u25811990s": 3136,
  "\u2581prestigious": 7921,
  "\u2581terminated": 11529,
  "\u2581ports": 7833,
  "thermal": 22369,
  "\u2581inland": 8516,
  "\u2581og": 12960,
  "\u2581\u00ba": 92,
  "\u2581122": 12094,
  "\u2581brooding": 27904,
  "\u2581tenor": 8536,
  "\u2581island": 1481,
  "\u2581praising": 14840,
  "\u2581te": 7917,
  "\u2581iv": 3923,
  "\u2581homme": 25576,
  "\u2581dee": 8268,
  "\u2581heather": 8535,
  "\u2581\u1174": 485,
  "\u2581middlesex": 12656,
  "\u2581finger": 3346,
  "\u2581order": 1346,
  "\u2581stopped": 2032,
  "\u2581stevenson": 12638,
  "\u2581arsenic": 28598,
  "gia": 9442,
  "\u2581stairwell": 21111,
  "\u2581rotated": 19933,
  "oor": 15508,
  "shot": 18042,
  "\u2581crore": 20667,
  "\u2581laced": 16960,
  "\u2581billings": 25126,
  "\u2581tugs": 28308,
  "\u2581relax": 8485,
  "wny": 21253,
  "\u2581warsaw": 7201,
  "\u2581teatro": 15040,
  "\u2581drama": 2691,
  "\u25811746": 23509,
  "\u2581alexandre": 15973,
  "\u2581rbis": 22585,
  "\u2581ok": 6931,
  "\u2581both": 1122,
  "\u2581bryn": 18906,
  "chuk": 25518,
  "\u25813": 20,
  "\u2581kilometre": 12216,
  "\u0564": 28771,
  "\u2581ponds": 15881,
  "\u2581objections": 16306,
  "\u2581disbanded": 7534,
  "\u2581chico": 21138,
  "\u2581instead": 1614,
  "\u2581landed": 4567,
  "\u2581margins": 16036,
  "wc": 15528,
  "\u2581signaled": 21321,
  "\u2581dobson": 26681,
  "\u2581amazed": 14263,
  "\u2581capabilities": 8861,
  "\u2581suggestions": 14692,
  "\u2581inventions": 20646,
  "\u2581posted": 5868,
  "\u2581une": 15657,
  "\u2581growling": 21415,
  "\u2581marsh": 8411,
  "usion": 13501,
  "\u25811933": 3539,
  "\u2581silky": 17850,
  "\u2581panama": 7517,
  "\u2581flashbacks": 27947,
  "\u2581ludwig": 9304,
  "\u2581dripped": 21528,
  "von": 16791,
  "rized": 17427,
  "\u2581caliph": 21735,
  "\u2581horsemen": 24433,
  "\u2581abstract": 9063,
  "gor": 19257,
  "\u2581greaves": 26810,
  "\u2581clancy": 23532,
  "aja": 21736,
  "\u2581tightly": 6373,
  "\u2581297": 26504,
  "\u2581\u9fb8": 986,
  "\u2581nh": 17701,
  "\u2581deer": 7450,
  "\u2581gesellschaft": 26484,
  "\u2581gee": 19279,
  "ross": 24727,
  "\u2581esteem": 18595,
  "\u2581&": 7,
  "\u2581cpc": 27571,
  "\u2581peek": 18045,
  "\u2581maui": 27568,
  "\u2581nitrate": 28609,
  "ouring": 26899,
  "\u2581selector": 26002,
  "\u2581isotope": 27848,
  "\u2581\u2079": 546,
  "\u2581europeans": 12483,
  "\u2581casket": 24866,
  "\u2581extracts": 26061,
  "\u2581dt": 25720,
  "\u2581rotten": 10085,
  "\u2581democrat": 6674,
  "\u2581palermo": 17707,
  "\u2581deng": 25959,
  "\u258108": 4513,
  "ein": 11379,
  "\u2581cousins": 11336,
  "worth": 4174,
  "\u2581precipitation": 12513,
  "\u2581concepcion": 26333,
  "\u2581unpublished": 18108,
  "\u2581harris": 4673,
  "berman": 22993,
  "\u2581trough": 22391,
  "\u2581indicating": 7133,
  "\u2581norway": 4122,
  "\u2581failure": 3947,
  "\u2581scratching": 19293,
  "mist": 22740,
  "\u2581grit": 23844,
  "\u2581cyclones": 25071,
  "\u2581confined": 11304,
  "\u2581conor": 19547,
  "\u2581cobalt": 24629,
  "\u2581chapels": 23132,
  "\u2581instituto": 21598,
  "\u2581gotham": 21816,
  "\u2581american": 1139,
  "\u2581toe": 10758,
  "\u2581saigon": 23003,
  "\u2581sato": 19253,
  "\u2581catalan": 12975,
  "\u2581choir": 5598,
  "\u2581\u516c": 775,
  "\u2581observing": 13160,
  "\u2581emmanuel": 13461,
  "\u1d52": 29041,
  "\u2581cartoonist": 18661,
  "\u064a": 13500,
  "\u2581showcasing": 26698,
  "\u2581strangers": 11360,
  "dberg": 24192,
  "\u1105": 28996,
  "\u2581agitated": 20570,
  "\u2581chiang": 16686,
  "\u2581chamber": 3576,
  "\u2581steadily": 10330,
  "\u25811809": 11863,
  "\u2581giggling": 20785,
  "\u2581mongolian": 16857,
  "\u2581\u05d2": 246,
  "ved": 6180,
  "\u2581obesity": 23554,
  "\u2581fungal": 27081,
  "\u2581classify": 25270,
  "church": 21745,
  "\u2581padua": 23943,
  "master": 7708,
  "\u2581cy": 21332,
  "\u2581buck": 9133,
  "cycle": 22492,
  "\u2581precisely": 9787,
  "\u2581prices": 6599,
  "\u2581cabins": 19323,
  "\u2581clipped": 19146,
  "\u2581imagery": 12427,
  "fields": 14157,
  "\u2581pointedly": 27715,
  "\u2581bryson": 25847,
  "\u2581gangster": 19069,
  "mage": 25862,
  "\u2581turkish": 4039,
  "roy": 12240,
  "enham": 22582,
  "\u2581recognizes": 13602,
  "\u2581konrad": 21960,
  "\u2581sammy": 13452,
  "\u2581metabolism": 17091,
  "\u2581\u0baa": 391,
  "\u2581wade": 9655,
  "\u2581panels": 8322,
  "\u25811580": 27280,
  "\u2581600": 4176,
  "\u2581ui": 20320,
  "\u2581gan": 24959,
  "\u2581collecting": 8336,
  "\u2581constitution": 3554,
  "\u2581barnsley": 24141,
  "uity": 17520,
  "\u2581leafs": 20351,
  "\u2581courtesy": 13573,
  "\u2581operated": 2500,
  "\u2581adventist": 24698,
  "\u2581uphold": 26331,
  "\u2581motel": 13903,
  "\u2581katrina": 15866,
  "\u2581wreath": 28588,
  "\u2581flemish": 14429,
  "\u2581wetlands": 15632,
  "\u2581steamboat": 23899,
  "\u2581sustainable": 8086,
  "\u2581biological": 5899,
  "\u2581sardinia": 20596,
  "\u30a2": 29221,
  "por": 16824,
  "\u2581italiana": 27061,
  "uration": 17926,
  "\u2581comfortably": 17581,
  "bour": 24129,
  "\u2581nearby": 2520,
  "\u2581consisted": 4033,
  "kam": 26054,
  "\u2581envoy": 18920,
  "op": 6363,
  "\u2581lease": 9086,
  "\u2581cholera": 24918,
  "\u2581nyc": 15394,
  "\u767a": 29442,
  "\u2581baffled": 28090,
  "\u2581personality": 5182,
  "\u2581\u05de": 258,
  "\u2581plants": 3266,
  "\u2581wagon": 8542,
  "\u2581prominence": 11146,
  "\u2581tissues": 13097,
  "\u2581defeating": 5326,
  "\u2581johns": 10547,
  "\u2581dodge": 10900,
  "\u2581shouts": 14703,
  "\u2581tanker": 19137,
  "rly": 20196,
  "\u2581\u0e2a": 423,
  "\u2581prior": 2190,
  "\u2581widened": 7725,
  "ife": 28325,
  "\u2581addison": 17405,
  "\u2581cheung": 21634,
  "\u2581osaka": 12002,
  "\u2581expired": 12737,
  "\u2581assign": 22913,
  "\u2581peerage": 17762,
  "\u2581tavi": 23285,
  "star": 13119,
  "\u2581clinton": 6209,
  "kaya": 19720,
  "\u2581industries": 5090,
  "\u25811749": 23706,
  "\u2581charming": 10953,
  "\u2581interstate": 6555,
  "\u2581mainz": 18878,
  "block": 22469,
  "dling": 13425,
  "\u2581electrons": 14059,
  "\u2581fading": 13061,
  "hem": 28124,
  "\u2581\u516b": 774,
  "\u2581webster": 10637,
  "\u2581scandinavian": 16662,
  "\u2581\u0987": 352,
  "\u2581\u2093": 566,
  "\u2581inclination": 20972,
  "\u2581utmost": 26919,
  "\u2581championship": 1530,
  "\u2581kei": 25681,
  "\u1173": 29019,
  "\u2581sasha": 13675,
  "eld": 13275,
  "\u2581popcorn": 23595,
  "icide": 20754,
  "\u2581elm": 16711,
  "\u2581ending": 3568,
  "\u2581medallion": 21543,
  "\u2581tensor": 22437,
  "te": 1620,
  "\u2581employees": 4128,
  "\u2581develop": 3505,
  "\u2581manufactures": 21029,
  "chaft": 28045,
  "\u2581post": 1697,
  "\u2581stack": 8993,
  "\u2581hasn": 7442,
  "\u2581raymond": 6640,
  "\u2581fjord": 25160,
  "\u2581spark": 11127,
  "\u2581heiress": 19022,
  "\u2581brat": 27559,
  "\u2581teens": 12498,
  "\u2581178": 18291,
  "hya": 16917,
  "\u2581punches": 16959,
  "\u2581winked": 13219,
  "\u2581folklore": 12106,
  "posed": 18157,
  "aves": 20057,
  "\u2581honolulu": 15600,
  "85": 26533,
  "\u2581margin": 6787,
  "ggy": 21774,
  "isman": 19259,
  "\u2581macon": 19027,
  "\u2581thwarted": 27411,
  "\u2581locus": 24208,
  "\u2581shrieked": 21385,
  "\u2581regions": 3657,
  "\u2581claudio": 18571,
  "\u2581puts": 7511,
  "\u2581fewer": 7493,
  "\u2581\u1105": 461,
  "\u2581groove": 13102,
  "\u2581no": 1056,
  "\u2581sipped": 16737,
  "\u2581\u0f0d": 428,
  "\u2581prohibited": 9892,
  "\u2581hilly": 21802,
  "\u2581planet": 3776,
  "\u2581translators": 27398,
  "\u2581half": 1433,
  "\u2581roth": 11213,
  "\u2581calvin": 10132,
  "\u2581spielberg": 27742,
  "\u2581ransom": 15542,
  "\u2581irritation": 16375,
  "\u2581superhero": 15253,
  "\u2581210": 11877,
  "dou": 25799,
  "\u2581otis": 17901,
  "\u2581found": 1181,
  "\u2581wolfe": 13214,
  "\u2581phrase": 6657,
  "\u2581walls": 2683,
  "\u2581subtle": 10261,
  "\u2581\u0449": 207,
  "\u2581venue": 5893,
  "\u2581customer": 7015,
  "cius": 24395,
  "gu": 11195,
  "\u2581\u90e8": 963,
  "\u2581spectroscopy": 24460,
  "\u2581place": 1175,
  "zes": 10256,
  "\u2581\u02c8": 152,
  "\u2581swallowed": 6353,
  "\u2581joe": 2535,
  "\u2581optimism": 26453,
  "\u2581\u7592": 916,
  "\u2581poles": 9569,
  "\u2581harmonies": 27596,
  "ril": 14930,
  "\u2581syllables": 19734,
  "\u2581bali": 19224,
  "gging": 11590,
  "anor": 26871,
  "\u2581crippled": 23435,
  "quette": 28418,
  "\u2581rees": 21133,
  "fen": 17942,
  "\u2581palm": 4342,
  "fixed": 22903,
  "\u2581naples": 9555,
  "\u2581drying": 16464,
  "\u2581andrea": 7659,
  "\u2581williamson": 13335,
  "\u2581pia": 23626,
  "lain": 14989,
  "\u2581ken": 5360,
  "\u2581economy": 3612,
  "\u2581restrictive": 24988,
  "\u2581peaking": 12017,
  "\u2581engineer": 2994,
  "\u2581hush": 19263,
  "\u2581bolted": 17090,
  "\u258114th": 5402,
  "\u2581chained": 21077,
  "\u2581heaving": 22909,
  "\u5bbf": 29354,
  "\u2581germanic": 14141,
  "\u2581floral": 17688,
  "\u2581disadvantage": 19504,
  "\u2581marge": 24534,
  "\u2581snatch": 22367,
  "\u2581august": 1259,
  "han": 3821,
  "\u2581m": 52,
  "\u2581\u27e8": 632,
  "\u2581parisian": 23264,
  "\u2581secretary": 2189,
  "\u2581plastic": 5083,
  "\u2581daryl": 21516,
  "\u05dd": 28802,
  "\u2581scooped": 19806,
  "nikov": 21578,
  "\u2581unnatural": 20244,
  "\u2581follows": 3078,
  "\u2581wearing": 3149,
  "\u2581marlon": 24863,
  "\u2581madeline": 15976,
  "\u2581hahn": 23268,
  "\u2581admiring": 23590,
  "\u2581pending": 13225,
  "\u2581142": 15089,
  "\u2581columbus": 7914,
  "\u2581torment": 20743,
  "\u2581eventually": 1778,
  "eme": 20384,
  "\u2581voss": 23880,
  "\u2581middleweight": 17743,
  "\u2581marrying": 12518,
  "\u2581following": 1208,
  "aj": 12008,
  "\u2581anticipating": 25483,
  "\u2581anxious": 10482,
  "\u2581things": 1479,
  "ducted": 28512,
  "\u2581nawab": 25545,
  "\u6cd5": 29429,
  "\u2581compare": 11828,
  "\u2581hog": 26591,
  "\u2581chair": 2244,
  "\u2581375": 17036,
  "\u2581hummed": 25749,
  "\u2581stunned": 8862,
  "\u2581moose": 16718,
  "\u2581laying": 9203,
  "\u2581adjusted": 9428,
  "\u2581stopping": 6460,
  "pf": 13378,
  "\u2581targets": 6891,
  "\u2581shells": 9988,
  "\u2581illicit": 24051,
  "\u2581berry": 9500,
  "\u2581humor": 7564,
  "\u25812nd": 2418,
  "\u2581qatar": 11579,
  "\u2581someplace": 23958,
  "\u2581164": 16945,
  "pw": 27402,
  "bon": 10737,
  "hy": 9538,
  "\u2581wii": 15570,
  "\u2581\u0438": 191,
  "\u2581lear": 25513,
  "\u2581raaf": 21711,
  "arable": 24238,
  "tell": 22569,
  "\u25811865": 5727,
  "\u2581depths": 10145,
  "58": 26816,
  "\u7592": 29441,
  "\u2581nicaragua": 14450,
  "\u2581hierarchical": 24837,
  "meral": 27992,
  "\u2581stubborn": 13207,
  "\u2581healing": 7909,
  "\u2581kidnapping": 14073,
  "\u1166": 29011,
  "oration": 20225,
  "\u2581irs": 24762,
  "\u2581novgorod": 23340,
  "\u2581epstein": 25648,
  "hering": 21660,
  "tub": 27253,
  "\u2581collect": 7147,
  "\u2581obtained": 3665,
  "\u2581orthodoxy": 25584,
  "\u2581permanent": 3570,
  "\u2581aka": 8877,
  "\u2581essence": 10307,
  "\u0e15": 28949,
  "\u2581memphis": 8776,
  "\u2581boiling": 15020,
  "\u2581pursuit": 7465,
  "\u2581bs": 17669,
  "\u2581cruiser": 9846,
  "\u2581precinct": 17763,
  "\u2581bringing": 4028,
  "eb": 14880,
  "\u2581card": 3005,
  "\u2581curtain": 10004,
  "\u2581disorders": 9842,
  "\u2581heel": 11075,
  "\u2581reporting": 6318,
  "ingly": 14789,
  "shing": 11229,
  "\u2581knuckles": 12515,
  "\u2581disputed": 10623,
  "\u2581hannah": 7412,
  "\u2581heath": 8897,
  "\u2581\u3046": 651,
  "\u2581annette": 21523,
  "\u2581racial": 4764,
  "\u2581unusual": 4868,
  "\u2581armour": 11373,
  "\u2581philadelphia": 3409,
  "\u2581nun": 15636,
  "\u2581princess": 3617,
  "\u2581\u5065": 771,
  "\u2581plasma": 11125,
  "\u2581anime": 7752,
  "\u2581reveal": 6489,
  "\u2581lough": 28506,
  "zen": 9433,
  "\u2581tex": 15062,
  "\u2581hollow": 7894,
  "\u2581raiders": 9644,
  "\u2581stunning": 13728,
  "\u2581fluent": 18378,
  "\u2581faster": 4516,
  "\u2581know": 1116,
  "\u2581mama": 8590,
  "\u2581quinlan": 27453,
  "\u2581augustine": 13062,
  "\u2581palma": 22987,
  "\u2581besieged": 16925,
  "\u2581dollar": 6924,
  "\u25811757": 21623,
  "\u2581czechoslovak": 20284,
  "\u2581cochran": 27508,
  "\u2581madame": 9604,
  "\u25811900": 4143,
  "\u2581intersecting": 26296,
  "\u2581\u2116": 581,
  "\u2581chaplin": 22333,
  "\u2581records": 1638,
  "\u2581aroma": 22960,
  "\u2581salt": 4476,
  "uso": 25660,
  "ably": 7233,
  "\u2581laurent": 13720,
  "\u2581peanut": 20445,
  "\u2581slopes": 9316,
  "\u1d2e": 29029,
  "\u2581utilizes": 20854,
  "jiang": 20788,
  "\u2581associates": 8230,
  "\u2581coloration": 27759,
  "\u2581nu": 15373,
  "\u2581sacked": 13161,
  "\u2581faculties": 17660,
  "\u2581hove": 24217,
  "\u2581horribly": 26764,
  "vira": 23095,
  "\u2581hume": 19370,
  "layer": 23316,
  "\u2581rebel": 7445,
  "\u2581theodore": 9119,
  "\u2581illumination": 20205,
  "\u2581740": 24835,
  "\u2581165": 12915,
  "\u2581homosexual": 14669,
  "\u2581becoming": 2354,
  "\u2581shake": 5075,
  "\u2581assent": 26197,
  "\u2581yamamoto": 27320,
  "rim": 19028,
  "\u2581airship": 26638,
  "zzi": 12795,
  "\u2581deteriorated": 19113,
  "\u2581trimmed": 20922,
  "\u0631": 16151,
  "\u2581specifies": 26173,
  "\u2581fuselage": 12480,
  "\u2581limiting": 13881,
  "\u2581skirmish": 26266,
  "metry": 23329,
  "\u2581mikhail": 10320,
  "\u2581\u6b66": 892,
  "\u2581delivers": 17060,
  "\u2581boyle": 15696,
  "\u2581enjoyed": 4634,
  "\u2581susceptible": 17004,
  "\u2581iraq": 4714,
  "\u2581abilities": 6592,
  "efe": 26237,
  "\u2581arjun": 25026,
  "\u2581edict": 23756,
  "igate": 27733,
  "\u25811720": 22537,
  "\u2581spoken": 4289,
  "\u2581\u898b": 951,
  "\u2581montane": 20706,
  "\u2581arrange": 12623,
  "\u2581ahmad": 9783,
  "\u2581sadie": 20332,
  "\u2581oclc": 11260,
  "\u2581sanders": 11057,
  "\u2581oakley": 27878,
  "\u2581missouri": 4286,
  "\u2581dozens": 8879,
  "rating": 14174,
  "\u2581armistice": 18127,
  "\u2581tackled": 25178,
  "\u2581\u0f53": 432,
  "uses": 24583,
  "\u2581taxation": 13954,
  "\u2581devices": 4735,
  "\u2581nap": 17998,
  "\u2581specials": 18249,
  "\u2581curved": 8205,
  "\u2581exiles": 26129,
  "\u2581invariant": 22917,
  "\u2581members": 1374,
  "\u2581corbin": 23005,
  "imeter": 18200,
  "\u2581256": 16275,
  "pping": 13855,
  "\u2581pensions": 21026,
  "osa": 7822,
  "\u2581revolutionary": 5210,
  "\u2581katharine": 24741,
  "\u2581eagles": 7127,
  "\u2581diet": 7740,
  "\u2581\u11ab": 488,
  "\u2581limerick": 14681,
  "\u2581\u6cd5": 904,
  "\u2581havana": 14280,
  "\u2581coordination": 11018,
  "\u25811970": 2361,
  "\u2581croats": 25224,
  "\u5bb6": 29353,
  "dorff": 25561,
  "\u2581arrivals": 24472,
  "\u2581resignation": 7174,
  "\u2581rejecting": 20938,
  "\u2581sporadic": 23592,
  "\u2581went": 1255,
  "\u2581equilibrium": 13444,
  "\u2581tyler": 6484,
  "\u2581obliged": 13725,
  "\u2581appeals": 8025,
  "\u2581bathroom": 4725,
  "\u2581ruin": 9085,
  "\u2581chang": 10134,
  "ars": 10652,
  "\u2581emancipation": 21658,
  "\u2581skeletal": 19417,
  "\u2581platinum": 7901,
  "\u2581rating": 4792,
  "\u2581timmy": 26219,
  "tum": 10669,
  "\u2581rebound": 26757,
  "\u2581restaurants": 6886,
  "\u2581burma": 10052,
  "\u2581131": 13679,
  "\u2581assistant": 2355,
  "\u2581vote": 2791,
  "\u2581tokugawa": 21067,
  "\u2581thompson": 4955,
  "hot": 11328,
  "\u2581substantially": 11383,
  "bbly": 23202,
  "\u2581approx": 21482,
  "\u2581napier": 20322,
  "\u2581handful": 8212,
  "\u2581illnesses": 23759,
  "\u2581transgender": 15826,
  "\u2581uefa": 5665,
  "\u2581waving": 11017,
  "\u2581molecules": 9739,
  "\u2581matched": 9351,
  "\u2581baku": 15809,
  "\u2581hardcore": 12078,
  "\u2581waistband": 26555,
  "\u2581modelled": 22366,
  "\u2581maintained": 4226,
  "\u2581saetan": 22517,
  "chan": 13858,
  "\u2581nara": 26546,
  "\u2581edges": 6928,
  "\u2581porch": 6426,
  "\u2581mcintyre": 23566,
  "\u2581anniversary": 4317,
  "\u2581licensed": 6002,
  "\u2581phil": 5318,
  "\u2581pear": 27255,
  "umb": 24440,
  "\u2581areas": 1754,
  "sar": 9288,
  "\u25816": 23,
  "rie": 6375,
  "\u2581neighbor": 10431,
  "\u2581patel": 19457,
  "\u2581connect": 6534,
  "\u2581sean": 4979,
  "\u2581greyhound": 20222,
  "\u258196": 4988,
  "\u2581yuri": 13333,
  "\u2581maiden": 9496,
  "\u2581blouse": 17151,
  "\u2581featuring": 2796,
  "\u2581absolutely": 6080,
  "tel": 8836,
  "\u2581approval": 5228,
  "\u2581pleased": 6539,
  "\u2581crusade": 15284,
  "\u2581persian": 3725,
  "\u2581consul": 10803,
  "\u2581pavement": 13273,
  "tock": 16408,
  "\u2581winged": 13464,
  "\u2581usl": 21450,
  "\u25811963": 2701,
  "\u2581showcase": 12400,
  "\u2581\u30a6": 699,
  "\u2581dir": 15103,
  "\u2581tags": 21075,
  "\u2581determined": 3342,
  "\u2581tile": 13092,
  "\u2581award": 1402,
  "\u2581relieve": 14806,
  "\u2581delaware": 7454,
  "\u2581wu": 7816,
  "\u2581also": 1039,
  "\u2581ferreira": 25137,
  "\u2581orchestral": 12535,
  "\u2581guides": 11470,
  "\u25811981": 2263,
  "\u22c5": 29143,
  "\u2581guiding": 13671,
  "\u2581emerged": 5005,
  "\u2581rations": 28561,
  "\u2581grunt": 19698,
  "\u2581miniature": 11975,
  "otide": 25603,
  "\u2581peer": 7154,
  "\u2581trajectory": 21795,
  "\u2581compelled": 14057,
  "\u2581creeping": 17268,
  "\u2581\u2261": 610,
  "\u2581ngos": 21167,
  "\u2581vines": 15704,
  "\u2581mutation": 15223,
  "\u2581crabs": 25078,
  "page": 12706,
  "\u2581cheated": 21675,
  "\u2581northumberland": 15207,
  "nac": 17359,
  "\u2581cape": 3882,
  "sius": 23723,
  "\u2581booking": 20727,
  "\u2581knowledge": 2718,
  "\u2581corrupted": 26281,
  "\u2581consultation": 15055,
  "\u2581age": 1289,
  "\u2581methodist": 7940,
  "\u2581wilkes": 19637,
  "ags": 25456,
  "\u2581partially": 5824,
  "\u2581annexed": 12293,
  "\u2581expecting": 7076,
  "\u2581butterflies": 14025,
  "uppe": 28549,
  "bola": 23292,
  "\u2581debate": 4983,
  "\u2581fallon": 15445,
  "chai": 23927,
  "\u2581\u0459": 218,
  "\u2581weight": 2637,
  "\u2581elbows": 12692,
  "\u2581im": 9049,
  "\u2581foraging": 25914,
  "\u2581blindly": 24736,
  "onte": 27042,
  "\u2581jamal": 23134,
  "\u258155th": 28077,
  "\u2581weighted": 17217,
  "\u2581brutality": 23085,
  "sche": 21844,
  "\u2581cramped": 21768,
  "\u2581operational": 5517,
  "\u2581copenhagen": 8666,
  "\u2581mutual": 7205,
  "\u2581heron": 21916,
  "imated": 19594,
  "\u2581geraldine": 25989,
  "\u2581piers": 15069,
  "\u2581ak": 16714,
  "\u2581megan": 11758,
  "ign": 22775,
  "\u2581rector": 9937,
  "\u00bd": 12716,
  "houses": 14668,
  "\u2581flicker": 16911,
  "\u2581armada": 24308,
  "\u2581broadcaster": 10997,
  "\u2581hiss": 18076,
  "\u2581jung": 10812,
  "\u2609": 29151,
  "\u2581ri": 14546,
  "\u2581houston": 4397,
  "\u2581victor": 4127,
  "\u2581pursue": 6325,
  "\u2581station": 1278,
  "\u2581regulations": 6042,
  "\u2581surge": 11060,
  "\u0e23": 28955,
  "\u2581\u963f": 974,
  "\u2581inform": 11369,
  "\u2581gillespie": 20069,
  "yk": 14924,
  "\u2581zhejiang": 25807,
  "\u2581memorial": 2988,
  "\u2581breasts": 11684,
  "\u2581angles": 11115,
  "etti": 17321,
  "\u2581instructed": 9292,
  "\u2581nouvelle": 24209,
  "\u2581weeks": 2136,
  "\u2581classrooms": 11465,
  "\u2581advice": 5042,
  "\u2581tchaikovsky": 24902,
  "\u2581ducks": 13877,
  "ere": 6871,
  "\u2581potentially": 8282,
  "\u2581marked": 3419,
  "\u2581eleven": 4410,
  "\u2581roe": 19946,
  "bos": 14855,
  "\u2581marjorie": 20564,
  "\u2581successes": 13154,
  "\u0926": 28863,
  "\u2581wear": 3931,
  "\u2581mom": 2568,
  "\u2581mounting": 14988,
  "\u2581pounds": 6040,
  "dana": 24919,
  "\u2581stirring": 17387,
  "jak": 17319,
  "\u2581eligibility": 10397,
  ">": 28633,
  "\u2581cracks": 14290,
  "\u2581tormented": 28028,
  "\u2581clapping": 26106,
  "\u2581buchanan": 13351,
  "roi": 25694,
  "\u2581translating": 21971,
  "\u2581waltz": 16571,
  "ier": 2773,
  "\u2581gr": 23667,
  "\u2581lego": 22855,
  "\u2581octagonal": 21342,
  "\u2581monopoly": 14406,
  "\u2581toss": 9057,
  "\u2581district": 1214,
  "\u2581tight": 3391,
  "\u2581lashed": 24696,
  "\u2581assigned": 3139,
  "\u2581appears": 2546,
  "oys": 26155,
  "masters": 26753,
  "\u2581chasing": 10779,
  "\u0e32": 28960,
  "\u2581beheaded": 27925,
  "trom": 12889,
  "\u2581sculpted": 18923,
  "ov": 3494,
  "\u2581proved": 3930,
  "\u2581phylogenetic": 22194,
  "\u2581i": 48,
  "iot": 24187,
  "\u0f0b": 28962,
  "\u25810": 17,
  "\u2581hilary": 21746,
  "\u2581effortlessly": 28485,
  "\u2581shrewsbury": 17176,
  "\u2581pray": 10841,
  "\u2581conglomerate": 21455,
  "\u2581opium": 20077,
  "\u2581wartime": 11500,
  "\u2581matches": 2505,
  "vite": 24219,
  "\u2581outsider": 20004,
  "\u2581kick": 4928,
  "\u2581embracing": 22583,
  "\u2581feng": 18006,
  "\u2581myriad": 24030,
  "\u2581okay": 2102,
  "\u2581mala": 27937,
  "ax": 7530,
  "\u2581crescent": 12154,
  "\u2581drinking": 4950,
  "\u2581existent": 24955,
  "\u2581stimuli": 21241,
  "\u2581penitentiary": 28571,
  "\u2581\u30f3": 740,
  "\u2581develops": 10793,
  "\u2581geometric": 13967,
  "\u2581signed": 1774,
  "\u25811961": 2779,
  "ado": 8367,
  "\u2581cd": 2731,
  "\u2581guitars": 6336,
  "\u2581industry": 2070,
  "\u2581interred": 12919,
  "\u2581noticeably": 24329,
  "\u2581arid": 16513,
  "\u2581prizes": 10582,
  "mussen": 28136,
  "\u2581having": 1385,
  "\u2581ska": 23055,
  "\u2581category": 3698,
  "\u2581\u30e9": 734,
  "\u2581holocaust": 10515,
  "\u2581donovan": 11731,
  "kled": 18861,
  "iba": 17412,
  "lates": 25788,
  "\u0638": 28831,
  "\u2581father": 1271,
  "fus": 24610,
  "azi": 15105,
  "\u2581motive": 14795,
  "\u2581everyone": 2073,
  "nts": 6668,
  "\u2581boosted": 27045,
  "\u2581clutching": 13199,
  "folia": 20712,
  "\u258175th": 24094,
  "\u2581explained": 3543,
  "lding": 23575,
  "\u2581slogan": 13560,
  "\u2581woke": 7273,
  "\u2581nagasaki": 26109,
  "\u2581warrior": 5752,
  "\u2581freed": 9652,
  "ccus": 26633,
  "\u2581imprint": 14740,
  "\u2581stills": 25107,
  "\u2581billboard": 3910,
  "\u09aa": 28905,
  "\u258130": 1384,
  "\u2581overly": 14243,
  "\u2581splinter": 26548,
  "\u2581colbert": 22930,
  "chers": 20846,
  "\u2581exasperated": 23381,
  "\u2581\"": 3,
  "\u2581priority": 8472,
  "\u2581madrid": 5923,
  "\u2581implementation": 6377,
  "\u2581downhill": 18450,
  "\u6625": 29395,
  "finder": 22697,
  "nction": 26991,
  "\u2581ecology": 12519,
  "\u2581tapestry": 24215,
  "\u2581bae": 24820,
  "\u2581sucking": 12477,
  "\u2581macro": 25634,
  "\u2581dialects": 10978,
  "\u2581through": 1086,
  "ffed": 14390,
  "mc": 11460,
  "\u2581thomas": 1728,
  "yam": 13854,
  "\u2581clarissa": 24262,
  "\u2581vickers": 17573,
  "\u2581skeptical": 17388,
  "\u0142a": 21974,
  "\u2581scots": 11198,
  "\u2581copying": 23733,
  "\u2581peoples": 6245,
  "\u2581keen": 9328,
  "hly": 26734,
  "\u2581strengthen": 11921,
  "\u2581roma": 11838,
  "\u2581inspect": 21461,
  "\u2581melodies": 15108,
  "icles": 19923,
  "\u2581mora": 25823,
  "\u2581partners": 4828,
  "\u2015": 29055,
  "\u2581struck": 3932,
  "eak": 24510,
  "\u2581syracuse": 10738,
  "\u2581uttered": 19949,
  "bee": 10308,
  "\u2581harley": 12655,
  "\u2581abstraction": 23506,
  "rogen": 21993,
  "\u2581mar": 8390,
  "\u2581hand": 1194,
  "nai": 25418,
  "\u2581guadalupe": 22531,
  "\u2581resolved": 9397,
  "\u2581piled": 16837,
  "\u2581freud": 18340,
  "\u2581imprisonment": 9221,
  "\u2581bella": 11103,
  "\u2581hunger": 8014,
  "\u2581easter": 9959,
  "\u2581archaeological": 6613,
  "\u2581vigorous": 20815,
  "\u2581\u592a": 815,
  "\u2581consolidated": 9497,
  "\u2581yemen": 12970,
  "\u2581hayden": 12874,
  "\u2581canvas": 9685,
  "\u2581\u1169": 478,
  "\u2581transatlantic": 25619,
  "\u2581tara": 9227,
  "\u2581freeze": 12186,
  "hill": 6102,
  "oric": 28182,
  "\u2581faltered": 25017,
  "\u2581utrecht": 17363,
  "down": 6700,
  "base": 14060,
  "pio": 21073,
  "\u2581external": 5329,
  "\u2581shuddered": 12939,
  "\u2581beg": 10695,
  "\u2581chinese": 1824,
  "\u2581violent": 5357,
  "\u2581terrorism": 9132,
  "\u2581diplomats": 22475,
  "\u2581destroying": 8848,
  "\u060c": 28816,
  "\u2581cables": 14198,
  "\u2581nazis": 12159,
  "\u2581bliss": 12672,
  "\u2581delilah": 22008,
  "\u2581jolted": 27803,
  "ata": 5792,
  "\u2581tenderness": 23607,
  "\u2581dress": 3379,
  "\u2581stereotypes": 21809,
  "\u2581ju": 17416,
  "\u2581sergeant": 5724,
  "\u2581pepper": 10567,
  "\u2581hope": 2248,
  "\u2581scrape": 25990,
  "path": 14071,
  "\u2581accessibility": 22663,
  "\u2581zagreb": 11976,
  "\u2581johansson": 25449,
  "\u2581ordnance": 13447,
  "\u2581likelihood": 15595,
  "\u2581clergy": 10648,
  "relli": 21950,
  "\u2581hana": 25050,
  "\u2581vanished": 8957,
  "\u2581autopsy": 23536,
  "\u2581bile": 22976,
  "\u2581reached": 1586,
  "\u2581phantom": 10590,
  "\u2581elliot": 10761,
  "\u2581hotels": 8277,
  "\u2581cement": 10299,
  "\u25811840s": 18310,
  "\u2581examined": 7922,
  "\u2581inn": 6603,
  "dam": 16132,
  "\u4e09": 29269,
  "ps": 3525,
  "\u258190": 2940,
  "\u2581skipper": 22251,
  "\u2581defined": 3227,
  "dna": 27913,
  "chev": 15181,
  "\u2581devin": 22603,
  "\u83ef": 29470,
  "\u22121": 26946,
  "\u2581inserted": 11891,
  "\u2581itf": 26684,
  "\u2581harper": 7502,
  "\u2581brien": 8850,
  "\u2581texted": 23639,
  "\u2581beside": 2877,
  "\u2581vidal": 28261,
  "\u2581fulfilled": 15831,
  "\u2581ecumenical": 22542,
  "\u2581stored": 7252,
  "\u2581tai": 12845,
  "\u2581kinship": 26868,
  "\u2581catcher": 12797,
  "\u2581gerard": 10065,
  "\u2581ultra": 10089,
  "\u062c": 28821,
  "\u2581peggy": 13913,
  "gau": 19422,
  "\u2581touchdown": 6923,
  "\u2581suspended": 5733,
  "oi": 9450,
  "\u2581maybe": 1674,
  "\u043e\u0432\u0438\u0447": 15200,
  "sty": 20758,
  "\u2581fraction": 11886,
  "eki": 25578,
  "lham": 24970,
  "\u2581spared": 15893,
  "\u2581rc": 21112,
  "bourg": 19433,
  "nis": 7979,
  "\u2581help": 1395,
  "\u2581\u0997": 358,
  "\u2581outta": 23957,
  "\u258180s": 15004,
  "\u2581exhaled": 15244,
  "\u2581organising": 20319,
  "\u2581yusuf": 22497,
  "\u2581land": 1457,
  "ough": 9595,
  "\u2581163": 16869,
  "\u2581use": 1226,
  "\u2581disciplines": 11738,
  "\u2581frances": 9362,
  "erine": 23228,
  "\u2581efficacy": 20152,
  "\u2581banco": 27680,
  "\u2581guessed": 10447,
  "\u2581commit": 9799,
  "uen": 23999,
  "\u2581tall": 3208,
  "\u11b7": 29025,
  "dry": 20192,
  "ators": 17928,
  "nal": 11034,
  "\u2581martin": 2237,
  "\u2581unincorporated": 6756,
  "\u25811987": 2057,
  "\u2581morphology": 18478,
  "\u2581pavel": 17637,
  "\u258147th": 27245,
  "\u25811712": 27462,
  "\u2581hebrew": 5838,
  "\u2581tucker": 8804,
  "\u2581appellate": 22242,
  "\u2581verandah": 25155,
  "\u2581pour": 9366,
  "\u2581expelled": 9018,
  "\u2581centuries": 3695,
  "\u2581warships": 14966,
  "\u2581binary": 11443,
  "\u2581arose": 9377,
  "\u2581j": 49,
  "\u2581writ": 24699,
  "\u2581brunei": 17694,
  "\u2581evenly": 17032,
  "\u2581apartment": 3547,
  "\u2581tasked": 12489,
  "sable": 18152,
  "enes": 27555,
  "\u2581ngo": 16897,
  "\u2581companions": 10948,
  "\u2581fringe": 12550,
  "\u2581mustang": 17853,
  "\u2581tribe": 4919,
  "\u25819": 26,
  "\u2581muttering": 21583,
  "\u2581patent": 6355,
  "\u2581decisive": 12081,
  "\u2581dominic": 10284,
  "\u2581angus": 12684,
  "\u2229": 29133,
  "\u2581sucks": 18239,
  "\u2581within": 1308,
  "\u2581argument": 5687,
  "be": 3785,
  "\u2581tubes": 9870,
  "\u2581invariably": 25599,
  "\u2581arranger": 12983,
  "\u2581tombstone": 25673,
  "anov": 24419,
  "\u2581apples": 17110,
  "\u2581maharashtra": 11436,
  "\u2581corps": 2652,
  "\u2581dynasties": 22016,
  "\u2581believes": 6166,
  "\u2581broadcast": 2745,
  "\u2581warming": 11961,
  "eller": 23040,
  "gible": 17509,
  "\u2581\u751f": 913,
  "\u2581wires": 13668,
  "\u2581spectral": 16437,
  "\u2581site": 1611,
  "\u2581\u0982": 349,
  "\u2581lucha": 24392,
  "ale": 8455,
  "\u2581artefacts": 24764,
  "\u2581alex": 3076,
  "\u2581voivodeship": 6227,
  "nais": 27022,
  "\u2581arthur": 3302,
  "\u2581disabilities": 12599,
  "cho": 8907,
  "\u2581indexed": 24333,
  "\u2581atp": 11651,
  "\u2581strings": 6819,
  "\u2581hartman": 25768,
  "\u25811759": 20669,
  "\u2581allegheny": 20194,
  "\u2581\u116f": 482,
  "nch": 11682,
  "\u2581irritating": 28350,
  "pc": 14044,
  "\u2581periods": 5995,
  "\u2581poetry": 3625,
  "\u2581torres": 12103,
  "\u2581barker": 11854,
  "\u798f": 29454,
  "ek": 4939,
  "\u2581pillows": 16862,
  "\u2581fortunate": 18592,
  "\u2581sonata": 13683,
  "\u2581eddy": 15647,
  "ther": 11401,
  "\u2581pavilion": 9533,
  "\u2581vans": 20996,
  "rise": 28348,
  "esis": 18011,
  "\u2581grazing": 14402,
  "\u2581yorker": 18097,
  "\u2581facebook": 8132,
  "\u2581freshly": 19231,
  "qua": 15213,
  "\u7f8e": 29463,
  "\u2581dunlop": 26460,
  "ti": 2777,
  "\u2581presenter": 9046,
  "\u2581avoidance": 23687,
  "\u2581edna": 20053,
  "\u2581invitational": 19131,
  "\u2581marriott": 25492,
  "\u2581brno": 27636,
  "\u2581galileo": 20516,
  "\u2581progressive": 5557,
  "\u2581gripping": 12942,
  "\u2581bjorn": 24000,
  "\u2581forwards": 18392,
  "\u2581hicks": 16223,
  "\u2581concerned": 3988,
  "\u2581capitol": 8426,
  "nation": 8325,
  "\u2581amounts": 7312,
  "carbon": 25192,
  "\u2581\u10e2": 456,
  "\u2581goodness": 14005,
  "\u2581wei": 10419,
  "\u2581bloc": 14986,
  "icum": 21169,
  "\u2581swinging": 10822,
  "\u2581sergio": 12985,
  "\u2581ticking": 27563,
  "istic": 5555,
  "\u2581fur": 5521,
  "\u2581surely": 6545,
  "eros": 26362,
  "\u2581reliability": 14260,
  "\u2581hermann": 11226,
  "\u2581bargaining": 20992,
  "\u2581ole": 14591,
  "\u2581yoko": 27760,
  "\u2581directional": 19398,
  "\u2581complimented": 26177,
  "\u2581heroism": 26119,
  "\u2581accelerator": 22470,
  "\u2581m\u00b3": 13243,
  "\u2581simpson": 8306,
  "\u2581dialogues": 21582,
  "\u2581landing": 3901,
  "wu": 15052,
  "\u30e1": 29254,
  "\u2581bikini": 19347,
  "\u258127th": 14047,
  "sight": 24809,
  "\u06c1": 28847,
  "\u2581curiosity": 9630,
  "\u2581burned": 4298,
  "\u2581boroughs": 20415,
  "\u2581graphical": 19479,
  "\u2581quest": 7797,
  "\u2581kent": 4984,
  "\u2581azure": 23298,
  "\u2581bernardo": 20177,
  "\u2581supplement": 11450,
  "\u2581amphibious": 15184,
  "\u2581barlow": 16805,
  "eiro": 16168,
  "idal": 15977,
  "\u2581checking": 8363,
  "\u2581levin": 19208,
  "\u2581companies": 2318,
  "wick": 6186,
  "\u2581bundled": 23380,
  "\u2581crisis": 4327,
  "\u2581neighbouring": 8634,
  "\u2581superhuman": 26063,
  "\u2581stacy": 17568,
  "\u2581bryan": 7529,
  "piration": 15783,
  "\u2581chapter": 2129,
  "\u2581yiddish": 19114,
  "\u2581realm": 7393,
  "\u2581fen": 20715,
  "\u2581logan": 5309,
  "\u2581innate": 24607,
  "\u2581copies": 3811,
  "\u2581municipalities": 6604,
  "\u2581otago": 20833,
  "\u2581rituals": 12551,
  "\u2581mixer": 22230,
  "\u2581mahogany": 22869,
  "\u2581triassic": 28531,
  "\u2581abandon": 9826,
  "urbed": 28597,
  "\u2581inquisition": 23640,
  "\u2581greenwich": 12863,
  "\u2581appointing": 27052,
  "\u2581proprietor": 20586,
  "\u2581manpower": 21041,
  "\u2581ant": 13407,
  "cide": 26084,
  "\u2581douglass": 26487,
  "\u2581\u3086": 686,
  "\u2581colony": 4703,
  "\u2581serra": 21739,
  "\u2581sacrifices": 17504,
  "\u2581\u5fc3": 852,
  "\u2581\u56db": 801,
  "\u2581chuckled": 9254,
  "\u884c": 29473,
  "\u2581het": 20772,
  "\u2581mt": 10049,
  "\u2581inadequate": 13712,
  "\u2581fathers": 10399,
  "\u2581rushed": 5762,
  "\u2581severed": 15576,
  "\u2581royal": 1550,
  "\u2581copy": 5102,
  "\u2605": 29149,
  "\u2581gandhi": 11340,
  "\u2581attorney": 3907,
  "52": 24748,
  "\u2581booming": 23718,
  "\u2581chancel": 15484,
  "\u2581\u02b2": 144,
  "\u2581socialists": 20635,
  "\u2581rangers": 6183,
  "\u2581designing": 11699,
  "\u2581mort": 21296,
  "\u8a9e": 29478,
  "\u2581beard": 9156,
  "\u0629": 18435,
  "obe": 19893,
  "\u2581opposing": 9080,
  "\u2581coffin": 12125,
  "\u2581attracting": 14413,
  "\u2581many": 1119,
  "\u2581photo": 5304,
  "\u2581victory": 2379,
  "\u0baf": 28928,
  "\u2581notes": 2966,
  "\u258120": 1324,
  "\u2581gall": 25035,
  "\u2581danced": 9950,
  "\u2581lucie": 27833,
  "\u2581monaco": 13499,
  "phic": 16928,
  "\u2581\u30b5": 708,
  "\u2581spin": 5716,
  "\u2581zulu": 26361,
  "\u2581toxin": 28092,
  "\u25811699": 27720,
  "\u2581toilets": 20676,
  "\u2581bret": 24628,
  "\u2581spokesman": 13058,
  "\u2581slit": 17038,
  "\u2581crosses": 6823,
  "\u2581dance": 2155,
  "\u2581bellamy": 24546,
  "itt": 11476,
  "\u2581powered": 5115,
  "\u2581relate": 13398,
  "\u2581gentry": 19264,
  "\u2581genera": 10418,
  "\u2581kamen": 21101,
  "\u2581accelerated": 13615,
  "tin": 6631,
  "\u2581methodology": 15136,
  "ggles": 23991,
  "\u2581prayers": 11585,
  "\u2581catering": 17642,
  "\u2581boo": 21019,
  "\u2581450": 9334,
  "\u2581raked": 21440,
  "\u258180": 2772,
  "\u2581mammoth": 22716,
  "\u2581torture": 7641,
  "\u2581lurched": 20979,
  "\u2581coupled": 10213,
  "\u2581sympathetic": 12028,
  "\u2581authors": 5050,
  "\u2581eva": 8347,
  "\u2581divisional": 13169,
  "plate": 14727,
  "\u2581weren": 3696,
  "\u2581pledged": 15972,
  "\u2581sway": 16814,
  "\u2581discretion": 18260,
  "\u2581kwan": 26743,
  "\u2581ski": 7303,
  "\u2581accusations": 12521,
  "\u2581await": 25753,
  "\u2581contribution": 5693,
  "\u2581explosive": 10357,
  "lle": 5218,
  "\u2581graduating": 5802,
  "\u2581cuts": 6661,
  "\u2581rockwell": 24237,
  "\u2581mcgregor": 22025,
  "\u2581momentarily": 15034,
  "\u2581renewable": 12920,
  "\u2581whistled": 25267,
  "\u2581chairperson": 18074,
  "\u2581kade": 25161,
  "\u2581journalism": 7085,
  "\u2581march": 1235,
  "\u2581attraction": 7434,
  "\u2581montana": 7126,
  "combe": 13151,
  "\u25811820": 10104,
  "\u2581bigger": 6048,
  "}": 28644,
  "aus": 19561,
  "\u2581produced": 1552,
  "pants": 26580,
  "56": 25978,
  "\u2581carlton": 11991,
  "\u2581spy": 7647,
  "\u2581hogan": 13853,
  "\u2581sparrow": 18481,
  "\u2581alyssa": 25444,
  "\u2581left": 1189,
  "\u2581tavern": 12092,
  "\u2581\u8eca": 957,
  "\u2581marvin": 12750,
  "\u2581\u1167": 477,
  "\u2581inauguration": 16333,
  "\u2581clubhouse": 21069,
  "\u110c": 29002,
  "\u2581prism": 25115,
  "\u2581traveling": 6120,
  "\u2581\u0baf": 393,
  "\u2581cornerstone": 22356,
  "\u2581prison": 2829,
  "\u2581mattress": 12344,
  "\u2581portable": 11111,
  "\u2581deter": 27285,
  "bury": 3919,
  "\u2581sanitation": 17725,
  "\u2581gods": 4934,
  "\u2581generation": 3247,
  "\u2581implemented": 6530,
  "\u2581exotic": 11566,
  "\u2581collapses": 24940,
  "\u2581romania": 5341,
  "\u258136": 3031,
  "\u02e3": 28720,
  "\u2581volcanoes": 22696,
  "\u2581abc": 4927,
  "sd": 15152,
  "\u0251": 28679,
  "\u2581prototypes": 18601,
  "\u2581pots": 17913,
  "\u2581pinched": 17523,
  "sten": 15175,
  "\u2581augsburg": 23364,
  "\u2581dam": 4479,
  "\u2581beat": 2788,
  "\u2581ugly": 8202,
  "\u2581brussels": 8373,
  "\u2581deciduous": 21413,
  "nesia": 20511,
  "tled": 13784,
  "\u2581marcus": 5649,
  "\u2581storage": 4529,
  "\u2581massive": 4296,
  "\u2581carly": 17433,
  "\u2581patterns": 6062,
  "\u2581celebrations": 11037,
  "\u2581229": 21779,
  "\u2581elegant": 10554,
  "uman": 18044,
  "\u2581chichester": 22408,
  "cum": 23896,
  "\u2581robe": 10113,
  "mpton": 25795,
  "\u2581operas": 13283,
  "\u2581empirical": 16539,
  "\u2581alvarez": 15311,
  "rize": 24711,
  "\u2581panties": 11097,
  "\u2581vicinity": 8886,
  "\u2581beyonce": 19775,
  "\u2581crews": 9606,
  "\u2581fishery": 21882,
  "\u2581exhibition": 3540,
  "\u2581stands": 3834,
  "tham": 21538,
  "\u2581transparency": 15989,
  "\u2581dismissal": 14324,
  "\u03c2": 18581,
  "\u2581microscope": 23637,
  "\u2581diagnosed": 10443,
  "\u2581jonny": 25939,
  "ball": 6386,
  "\u2581airs": 13371,
  "\u2581\u30e3": 731,
  "\u2581longtime": 10157,
  "umen": 26419,
  "\u2581ranks": 5940,
  "\u2581slovakia": 9993,
  "\u2581\u0431": 184,
  "\u2581raider": 26828,
  "\u2581\u02bb": 148,
  "\u2581mit": 9212,
  "\u2581ignoring": 8219,
  "\u2581spiders": 13162,
  "\u2581placed": 1874,
  "ddle": 19340,
  "\u2581product": 3033,
  "\u2581correctional": 19875,
  "\u2581lured": 25675,
  "\u2581sao": 6511,
  "\u2581demonstrating": 13315,
  "\u2581packs": 14175,
  "\u2581literature": 2908,
  "\u2581cathy": 17307,
  "\u2581neighborhoods": 10683,
  "zan": 12473,
  "\u2581jennifer": 6675,
  "\u2581vii": 7892,
  "\u2581sourced": 22186,
  "\u2581exhibiting": 21924,
  "\u2581reused": 25515,
  "\u2581nave": 11849,
  "\u2581ie": 28466,
  "if": 9130,
  "\u2581italians": 15775,
  "\u2581colorful": 13233,
  "\u2581portland": 5736,
  "orough": 25390,
  "\u2581masses": 10680,
  "\u2581rebecca": 8425,
  "\u2581hitter": 17696,
  "\u04cf": 28767,
  "\u2581fingered": 27844,
  "\u2581\u094b": 346,
  "\u2581knights": 6309,
  "\u2581decline": 5691,
  "\u30e2": 29255,
  "zog": 27507,
  "\u2581haji": 27176,
  "\u2581brigades": 13591,
  "jima": 18419,
  "\u2581pins": 15302,
  "\u25811929": 3614,
  "\u2581enjoyment": 19197,
  "\u2581cowboy": 10764,
  "\u2581lore": 18546,
  "\u2581snack": 18784,
  "\u2581grimly": 21563,
  "\u2581\u304a": 653,
  "\u2581explosions": 17219,
  "\u2581genres": 10543,
  "\u0e2d": 28959,
  "\u2581credibility": 20555,
  "\u2581binoculars": 28551,
  "\u2581\uff0f": 995,
  "\u2581launch": 3890,
  "\u2581spirits": 7635,
  "\u2581renumbered": 26857,
  "ai": 3888,
  "\u2581joseph": 2314,
  "\u2581condition": 3652,
  "\u2581insider": 24299,
  "\u2581consonant": 17267,
  "\u2581undertaken": 9609,
  "\u2581keep": 1564,
  "\u2581analysis": 3108,
  "\u2581reviewer": 11029,
  "\u2581\u4f8d": 768,
  "\u2581domes": 25195,
  "\u2581gables": 26010,
  "\u2581libertarian": 18299,
  "\u2581nhs": 16239,
  "rani": 20580,
  "\u2581mongols": 21237,
  "\u2581dominant": 6446,
  "\u2581lucas": 5328,
  "sco": 8365,
  "\u2581gm": 12940,
  "\u2581inducing": 28292,
  "zers": 15752,
  "\u2581institutions": 3898,
  "\u2581expense": 9963,
  "\u2581fantastic": 9394,
  "\u2581iteration": 26760,
  "\u2581hat": 5047,
  "\u2581librarian": 12852,
  "\u2581olympia": 16098,
  "itical": 25118,
  "\u2581gene": 3964,
  "\u2581trams": 18218,
  "\u2581289": 26056,
  "ory": 9255,
  "par": 18364,
  "\u2581inventory": 11614,
  "\u2581intentions": 10176,
  "\u2581\u529b": 781,
  "\u2581grade": 2696,
  "\u2581northwestern": 6857,
  "\u2581twitched": 15769,
  "\u2581heavy": 2084,
  "\u2581timber": 6229,
  "\u2581luzon": 20624,
  "\u2581column": 4932,
  "\u7537": 29440,
  "\u2581investor": 13318,
  "bid": 16064,
  "\u2581market": 2008,
  "\u25811609": 27060,
  "\u2581neighbors": 9640,
  "opped": 26290,
  "\u2581accomplishments": 16573,
  "swick": 26722,
  "\u2581established": 1513,
  "\u2581\u0131": 107,
  "eto": 17905,
  "\u2581forefront": 21872,
  "\u2581designers": 10218,
  "\u2581rotting": 21007,
  "\u25811859": 7167,
  "\u2581delle": 23123,
  "\u2581eastbound": 23775,
  "\u2581killed": 1732,
  "\u2581orderly": 22591,
  "\u2581veil": 14564,
  "\u2581thailand": 5506,
  "\u2581\u0637": 289,
  "sed": 5926,
  "\u2581rounded": 7354,
  "\u2581nic": 26971,
  "gled": 10535,
  "\u2581cola": 14272,
  "\u2581cc": 9509,
  "\u2581ached": 14045,
  "\u2581julio": 14092,
  "\u25811707": 24031,
  "uh": 26227,
  "\u2581alcohol": 5546,
  "\u2581crises": 24334,
  "\u2581turbulence": 28085,
  "\u2581squadron": 2706,
  "\u2581barefoot": 21987,
  "chen": 7663,
  "\u2581wing": 2360,
  "\u2581please": 2533,
  "\u2581deeper": 5750,
  "\u2581medicinal": 19634,
  "yoshi": 18198,
  "\u2581rover": 12633,
  "\u2581lisa": 6061,
  "rona": 25790,
  "\u2581pointless": 22102,
  "\u2581mood": 5890,
  "\u2581\u0dc0": 410,
  "\u2581solutions": 6302,
  "\u25811868": 6584,
  "\u2581griffiths": 20962,
  "rou": 21496,
  "\u2581driving": 3441,
  "aha": 22280,
  "gt": 12514,
  "\u2581platform": 3134,
  "\u2581heir": 7217,
  "\u2581columns": 6755,
  "\u2581bats": 11238,
  "\u2581\u0444": 202,
  "\u2581mani": 22626,
  "\u2581argentina": 4621,
  "\u2581olsen": 17999,
  "\u2581flower": 5548,
  "\u2581beast": 5843,
  "\u2581medalist": 11970,
  "\u2581miriam": 15927,
  "\u2581nobleman": 17489,
  "\u2581streaked": 20278,
  "\u2581tung": 26081,
  "\u2581empire": 2402,
  "\u2581sneered": 27100,
  "\u2581future": 1927,
  "\u044e": 28759,
  "\u2581baroque": 9458,
  "\u2581aria": 8344,
  "\u2581slavic": 12840,
  "\u2581foreman": 17033,
  "able": 2087,
  "\u2581aqua": 27321,
  "\u2581\u09aa": 370,
  "\u2581jamaica": 8158,
  "\u2581guitarists": 27525,
  "\u2581sections": 4435,
  "\u25811761": 20366,
  "\u2581really": 1430,
  "hman": 12892,
  "\u2581initiate": 16822,
  "\u2581bundles": 25827,
  "\u2581spike": 8999,
  "\u2581np": 26939,
  "\u2581mingled": 24961,
  "\u25811851": 7794,
  "\u2581lyndon": 22039,
  "\u2581tower": 2580,
  "\u2581admit": 5451,
  "\u2581longer": 1938,
  "\u2581bled": 22921,
  "press": 19112,
  "\u2581claimed": 2557,
  "cision": 27474,
  "\u2581unofficially": 28324,
  "\u2581manufactured": 6611,
  "\u2581milk": 5503,
  "\u2581mansions": 25844,
  "\u2581il": 5337,
  "\u2581belgarath": 20258,
  "\u2581shortlisted": 20355,
  "\u2581\u03bd": 170,
  "\u25811016": 27709,
  "\u2581durga": 27748,
  "\u116d": 29015,
  "\u2581jew": 15524,
  "\u2581vc": 17317,
  "oons": 26176,
  "\u2581theorists": 27444,
  "\u2581590": 24188,
  "\u2581passed": 1981,
  "\u2581liga": 7020,
  "\u2581forehead": 5132,
  "\u2581lancashire": 8640,
  "hedron": 25442,
  "\u2581packed": 7968,
  "firm": 26974,
  "\u2581ward": 3831,
  "\u2581concord": 15559,
  "\u2581capacities": 20159,
  "\u2581staff": 2097,
  "\u2581eh": 14503,
  "\u2581cornwall": 9389,
  "\u2581fossil": 9727,
  "\u2581voted": 4446,
  "\u2581beck": 9274,
  "\u2581argyle": 25505,
  "\u2581realities": 21215,
  "\u2581flees": 23778,
  "\u2581supply": 3427,
  "\u2581melody": 7533,
  "\u2581midtown": 26221,
  "\u2581competed": 2881,
  "\u2581artwork": 7268,
  "\u25811624": 27533,
  "\u2581bingham": 23581,
  "\u2581\u03b2": 159,
  "\u2581finalist": 8916,
  "\u2581dick": 4982,
  "\u2581roaring": 16199,
  "\u2581332": 28329,
  "\u2581oasis": 17130,
  "\u2581feudal": 15710,
  "ono": 16177,
  "\u2581hardware": 7053,
  "\u2581depend": 11532,
  "\u2581henson": 26229,
  "\u2581universite": 21178,
  "\u2581\u5929": 814,
  "\u2581brotherhood": 11867,
  "\u2581owned": 2081,
  "yse": 22276,
  "\u2581\u208e": 562,
  "\u2581slain": 18670,
  "\u2581sonora": 25649,
  "\u5b50": 29344,
  "\u2581rag": 16770,
  "\u2581mound": 11050,
  "\u2581catholics": 9776,
  "cy": 4668,
  "\u2581slovene": 17328,
  "\u2581fusiliers": 26209,
  "\u2581dismantled": 16295,
  "\u2581colonies": 7357,
  "\u2581alba": 17257,
  "bilis": 26967,
  "\u2581musical": 2317,
  "\u2581rashid": 21082,
  "\u2581civilian": 5833,
  "\u2581crossed": 3627,
  "\u2581trader": 16669,
  "cen": 26526,
  "\u2581strongly": 5120,
  "\u2581articles": 3792,
  "\u2581cassette": 12905,
  "ezer": 24735,
  "dding": 26029,
  "\u2581hybrid": 7895,
  "\u2581bulging": 26571,
  "\u2581joan": 6439,
  "ula": 6070,
  "\u2581eclectic": 19553,
  "\u2581\u5f18": 846,
  "\u2581highest": 2286,
  "\u2581cartel": 20682,
  "\u2581multitude": 19891,
  "\u0909": 28851,
  "\u2581kyrgyzstan": 22211,
  "\u258169": 5355,
  "\u2581\u09c0": 383,
  "bler": 15215,
  "\u2581securing": 11331,
  "\u2581treat": 6440,
  "\u2581malone": 15323,
  "zoo": 22223,
  "\u2581omitted": 15649,
  "\u2581amusement": 8780,
  "eded": 18084,
  "\u2581340": 15031,
  "\u2581panthers": 11917,
  "\u2581grinned": 5975,
  "\u2581bulky": 26448,
  "\u2581bequeathed": 26182,
  "\u2581zones": 9021,
  "\u2581lakshmi": 20354,
  "\u2581invade": 17447,
  "\u2581hmm": 16014,
  "\u2581documenting": 22140,
  "\u2581barak": 26741,
  "\u2581mercy": 7675,
  "\u2581excavation": 15458,
  "\u2581heck": 16754,
  "hid": 26513,
  "\u2581kit": 7936,
  "ndra": 16672,
  "\u2581instrument": 5604,
  "\u2581remained": 1817,
  "\u2581ancestors": 9750,
  "\u2581index": 4952,
  "\u2581scandinavia": 19614,
  "\u2581maize": 20156,
  "\u2581cynthia": 14811,
  "\u2581synthesized": 22574,
  "\u2581privilege": 13295,
  "\u2581wonders": 15280,
  "\u2581obligations": 13424,
  "inga": 27236,
  "\u2581runs": 2218,
  "gues": 21969,
  "\u2581\u1d49": 502,
  "\u2581synthetic": 11555,
  "codes": 22239,
  "lean": 19900,
  "\u2581jaguars": 23019,
  "ui": 9181,
  "\u2581regarded": 4242,
  "\u2581dayton": 13702,
  "\u2581session": 4221,
  "herton": 26951,
  "\u2581\u1111": 471,
  "\u2581pyrenees": 21698,
  "oteric": 28114,
  "fm": 15717,
  "ely": 25008,
  "\u2581expects": 23275,
  "\u0939": 28877,
  "\u2581glare": 9984,
  "\u2581it": 1012,
  "onga": 25358,
  "sman": 10514,
  "\u2581sears": 17495,
  "lal": 12839,
  "\u02e2": 28719,
  "tton": 14476,
  "weiler": 21386,
  "\u2581doorstep": 25583,
  "\u2581saturated": 22491,
  "rone": 19795,
  "\u2581camp": 2411,
  "\u2581mozambique": 15276,
  "\u2581\u0274": 127,
  "\u2581incentive": 19440,
  "dm": 21119,
  "\u2581aquatics": 25651,
  "\u2581cantor": 25521,
  "\u2581chow": 19211,
  "\u2581roast": 24045,
  "\u09a6": 28902,
  "an": 1321,
  "\u2581\u5c0f": 832,
  "\u2581vie": 19100,
  "\u2581warfare": 7311,
  "\u2581ballroom": 13309,
  "\u2581152": 14019,
  "\u2581\u2013": 519,
  "\u2581buddhism": 10390,
  "\u2581senior": 2028,
  "\u2581loser": 9918,
  "\u2581pas": 13676,
  "\u2581modification": 13082,
  "\u2581poorer": 26198,
  "\u2581skaters": 23791,
  "cede": 21121,
  "\u2581telangana": 22766,
  "\u2581haven": 3035,
  "\u2581dentist": 23387,
  "\u2581millionaire": 18967,
  "\u2581wroc\u0142aw": 24162,
  "tek": 22127,
  "\u2581metaphysical": 28083,
  "\u2581junk": 17017,
  "\u2581\u30fc": 742,
  "\u25811758": 15834,
  "\u2581sax": 18658,
  "\u2581whistling": 23352,
  "\u2581pagoda": 26389,
  "\u2581distraught": 24350,
  "\u2581racecourse": 14950,
  "zong": 12152,
  "lea": 18740,
  "kato": 25022,
  "\u2581bubba": 18608,
  "\u4e8c": 29280,
  "\u2581fortune": 6282,
  "\u2581motivated": 11776,
  "saka": 28291,
  "\u2581interest": 2039,
  "\u2581shelf": 10144,
  "\u2581rubbish": 28134,
  "\u2581jordanian": 25278,
  "\u05da": 28799,
  "borg": 10757,
  "\u2581perpetual": 17872,
  "\u2581kahn": 18363,
  "\u2581embroidered": 22592,
  "\u2581destruction": 5217,
  "\u2581feldman": 25910,
  "\u2581prevailing": 18285,
  "\u2581introduction": 3957,
  "\u2581turnover": 19993,
  "\u2581augusta": 12637,
  "\u2581berkeley": 7258,
  "\u2581bees": 12736,
  "\u2581sandals": 23619,
  "\u2581catalog": 11107,
  "\u2581photographed": 15166,
  "id": 2595,
  "\u2581relaxing": 18615,
  "\u2581streaming": 10060,
  "\u2581assembled": 8242,
  "eaux": 24641,
  "\u2581operating": 3084,
  "zman": 23342,
  "\u2581experimented": 19920,
  "\u2581tech": 5629,
  "\u2581notable": 2864,
  "\u2581unpleasant": 15012,
  "\u2581\u00a7": 76,
  "tania": 20015,
  "36": 20621,
  "\u2581clone": 16600,
  "\u2581tempted": 15314,
  "\u2581peas": 25074,
  "\u2581kgb": 24469,
  "icular": 20414,
  "\u2581tendency": 10767,
  "\u2581engraved": 15330,
  "\u2581brodie": 26381,
  "ede": 13730,
  "\u0bb5": 28932,
  "rga": 27923,
  "\u2581molecule": 12924,
  "\u2581cleanup": 26688,
  "\u2581ex": 3656,
  "\u2581responses": 9962,
  "\u2581exempt": 10821,
  "\u2581consulate": 18974,
  "\u2581vanishing": 23868,
  "\u2581pixels": 26727,
  "\u2581churchill": 9890,
  "nden": 24917,
  "\u2581314": 25259,
  "\u2581ava": 9929,
  "\u2581closes": 13574,
  "\u2581possibility": 5063,
  "\u2581organizing": 9865,
  "hort": 26796,
  "\u2581\u2089": 559,
  "\u2581ideas": 3786,
  "\u2581chaotic": 18635,
  "\u2581cheerfully": 26405,
  "\u2581communal": 14031,
  "\u2581burt": 17613,
  "vation": 20598,
  "\u2581franco": 8343,
  "kow": 23146,
  "\u2581blanket": 7770,
  "\u2581arterial": 24545,
  "ien": 8015,
  "actic": 27806,
  "\u2581renovations": 14578,
  "\u2581hoarse": 20223,
  "\u2581schwartz": 15758,
  "\u2581sounds": 3167,
  "\u2581poverty": 4637,
  "dell": 11664,
  "\u2581inventor": 11237,
  "\u2581selected": 2481,
  "\u2581next": 1281,
  "unds": 25700,
  "\u2581geschichte": 27301,
  "\u2581orr": 25916,
  "mbled": 22933,
  "\u2581republic": 2074,
  "\u2581accounted": 13731,
  "ante": 11958,
  "\u2581tragic": 12802,
  "\u2581peat": 22368,
  "\u2581stung": 18282,
  "\u2581harness": 16447,
  "\u2581realised": 10325,
  "leaf": 18215,
  "\u2581cas": 24224,
  "ako": 19413,
  "\u2581serious": 2811,
  "\u2581attendant": 15744,
  "\u2581effectively": 5466,
  "\u2581survives": 12657,
  "\u2581patsy": 24384,
  "\u2581caps": 8702,
  "\u2581editions": 5574,
  "\u2581una": 13479,
  "\u2581driver": 3064,
  "\u2581lithuanian": 9335,
  "\u2581wadi": 27382,
  "\u2581elders": 12378,
  "lor": 9628,
  "\u2581beans": 12437,
  "\u2581stay": 1996,
  "\u2581introduced": 2109,
  "\u2581seizure": 17636,
  "\u2581starr": 13332,
  "\u2581overboard": 26091,
  "word": 17353,
  "\u2581multiple": 2676,
  "\u2581eventual": 8525,
  "\u2581exercising": 27430,
  "usa": 9385,
  "\u2581upland": 24772,
  "\u2581buckinghamshire": 20714,
  "\u2581whisper": 6206,
  "\u2581league": 1225,
  "\u2581equipment": 2943,
  "\u2581registrar": 23582,
  "\u2581evil": 3765,
  "\u2581snap": 9247,
  "\u2581qc": 24198,
  "\u2581wow": 9168,
  "\u2581periodic": 14863,
  "\u258131st": 16091,
  "\u2581contributor": 11132,
  "\u2581duration": 8369,
  "\u2581risk": 2893,
  "\u2581fielder": 24002,
  "\u2581plumage": 27766,
  "ament": 23998,
  "cz": 26968,
  "\u2581thinner": 22084,
  "eous": 13771,
  "\u2581barons": 20489,
  ")": 28622,
  "\u5341": 29311,
  "mity": 15385,
  "\u2581cockpit": 12830,
  "osomal": 26644,
  "\u09b7": 28913,
  "\u2581armament": 13412,
  "\u2581write": 3341,
  "wk": 25293,
  "\u2581anybody": 9336,
  "\u2581thief": 11385,
  "ocene": 24795,
  "\u2581para": 10500,
  "\u2581brutally": 22199,
  "\u2581settle": 6394,
  "\u2581lethal": 11767,
  "\u2581awe": 14182,
  "\u56d7": 29325,
  "\u2581saskatoon": 24449,
  "\u2581clarinet": 11091,
  "\u2581scenarios": 15822,
  "\u2581giuseppe": 11576,
  "stra": 19530,
  "\u2581ascending": 21318,
  "\u2581heinrich": 9954,
  "ried": 11000,
  "\u2581addresses": 10598,
  "hart": 9688,
  "\u2581afb": 15911,
  "\u2581ellie": 9709,
  "\u2581laid": 3203,
  "akes": 19062,
  "\u2581oliveira": 23265,
  "\u2581woodrow": 22956,
  "\u2581for": 1008,
  "\u1102": 28994,
  "\u2581ghosts": 10279,
  "\u2581involve": 8127,
  "\u2581discharged": 13376,
  "\u2581nirvana": 25532,
  "\u2581oaks": 12398,
  "\u2581fran": 22153,
  "\u2581mini": 6165,
  "\u2581c2": 28250,
  "\u2581gritted": 16309,
  "\u2581demos": 17269,
  "\u2581\u300e": 646,
  "\u2581initial": 2990,
  "wo": 11157,
  "enia": 18827,
  "\u2581garnered": 12058,
  "\u2581fernandez": 11025,
  "\u2581dar": 17245,
  "\u2581attracts": 16773,
  "\u2581audience": 3380,
  "\u2581symphonic": 17959,
  "\u2581funnel": 24104,
  "\u2581mimi": 19707,
  "\u2581jun": 11024,
  "\u2581militant": 15832,
  "\u2581correction": 17142,
  "\u2581disbelief": 11539,
  "\u2581mets": 14255,
  "\u2581inuit": 24181,
  "\u2581jagger": 24829,
  "\u2581flaws": 20409,
  "\u2581turning": 2812,
  "rral": 23990,
  "\u2581conclusion": 6093,
  "\u2581slim": 10756,
  "\u0f53": 28967,
  "eum": 13822,
  "\u2581bankers": 24377,
  "giving": 22797,
  "\u2581command": 2096,
  "\u2581posts": 7468,
  "\u2581\u0649": 302,
  "\u2581gretchen": 20627,
  "\u2581fred": 4967,
  "\u2581kinds": 6959,
  "\u2581cultivated": 12239,
  "\u2581adi": 26135,
  "um": 1821,
  "\u2581jewish": 2646,
  "\u2581schooling": 13120,
  "nad": 24391,
  "\u2581israeli": 4613,
  "quisite": 23873,
  "\u2581candidate": 3020,
  "\u2581delivery": 5961,
  "\u2581susie": 22919,
  "vate": 15954,
  "\u2581produce": 2967,
  "\u2581woodland": 10053,
  "\u2581obama": 7114,
  "\u2581prof": 10270,
  "\u2581edgar": 8588,
  "\u2581transplant": 21293,
  "\u2581measurement": 9905,
  "\u2581senate": 3003,
  "\u2581ineffective": 19696,
  "\u2581premio": 22033,
  "\u2581warn": 10584,
  "\u2581pond": 7646,
  "\u2581miracles": 16863,
  "\u2581saul": 15899,
  "\u2581incense": 27649,
  "\u2581celestial": 16619,
  "\u2581inherent": 15114,
  "\u2581messy": 17309,
  "\u2581splitting": 13543,
  "\u2581parlor": 17748,
  "\u2581bee": 9508,
  "\u2581preserving": 14226,
  "\u2581108": 9717,
  "\u2581raceway": 22020,
  "aker": 21628,
  "\u2581alonso": 16651,
  "\u2581crept": 12149,
  "\u2581landmark": 7639,
  "\u2581haynes": 20807,
  "\u2581singleton": 27161,
  "\u2581efficient": 7116,
  "\u2581throttle": 23422,
  "\u2581tell": 1427,
  "rooms": 28022,
  "\u2581wound": 5359,
  "\u2581replied": 2882,
  "\u2581resident": 5321,
  "cene": 16970,
  "\u2581vt": 27881,
  "\u2581winfield": 23741,
  "\u2581incorporates": 11376,
  "\u2581extracted": 14903,
  "\u2581indicate": 4771,
  "\u2581bumper": 20521,
  "\u2581judgments": 25188,
  "lia": 5634,
  "\u2581perceived": 7692,
  "\u2581525": 24623,
  "\u2581equipped": 5057,
  "\u2581tongues": 18679,
  "\u2581observations": 8422,
  "\u2581word": 1775,
  "\u2581monastery": 5410,
  "\u2581disposition": 21139,
  "\u25811b": 25316,
  "\u2581janeiro": 10499,
  "\u2581\u6709": 876,
  "fighting": 21160,
  "\u2581cincinnati": 6799,
  "\u2581addicted": 22044,
  "\u2581rapidly": 4903,
  "\u2581intimidated": 27030,
  "\u2581ink": 9712,
  "\u2581\u667a": 872,
  "\u2581butter": 11138,
  "\u2581destination": 6690,
  "\u5dde": 29364,
  "hosh": 25645,
  "\u2581defamation": 26654,
  "\u2581extraction": 13678,
  "\u2581bulletin": 12148,
  "\u2581khmer": 18474,
  "\u2581shivered": 12929,
  "\u2581scientific": 3047,
  "\u2581vault": 10634,
  "\u2581holstein": 17866,
  "\u2581raising": 5276,
  "\u2581bruised": 17620,
  "\u2581decision": 2249,
  "\u2581thunder": 7507,
  "\u2581rhys": 12921,
  "\u2581educators": 18158,
  "\u2581326": 27190,
  "\u2581cipher": 26717,
  "\u2581theories": 7108,
  "\u2581patriots": 10581,
  "\u2581crowley": 19750,
  "\u2581defects": 17421,
  "\u2581erika": 23902,
  "\u2581determines": 15465,
  "\u2581francis": 3559,
  "\u2581frost": 9099,
  "\u2581empathy": 25454,
  "\u2581tributary": 7916,
  "\u2581novak": 18582,
  "\u305f": 29189,
  "\u2581nair": 21527,
  "\u2581tennessee": 4300,
  "\u2581mba": 14040,
  "\u2581suicide": 4922,
  "\u2581nutritional": 27270,
  "\u258125th": 9967,
  "\u2581lindsey": 16520,
  "\u2581maclean": 21530,
  "\u2581atrocities": 22484,
  "\u2581namesake": 16285,
  "\u2581queensland": 4324,
  "\u2581echoing": 16144,
  "\u2581bell": 3332,
  "pressing": 23130,
  "\u2581344": 28388,
  "\u2581reminiscent": 13565,
  "\u2581opera": 2852,
  "\u2581because": 1140,
  "\u2581freighter": 26947,
  "\u25811913": 4126,
  "\u2581houghton": 20236,
  "ggio": 19652,
  "\u2581pedestal": 23498,
  "\u2581helsinki": 11333,
  "rogated": 25567,
  "sser": 17118,
  "\u2581hiv": 8822,
  "gong": 16038,
  "tino": 24692,
  "\u2581vendors": 16090,
  "\u2581stormy": 23168,
  "\u2581school": 1085,
  "bbed": 14501,
  "\u2581excluded": 11423,
  "\u2581item": 7877,
  "\u2581gonna": 5071,
  "\u2581restoring": 15489,
  "\u2581solemn": 18489,
  "\u2581destinations": 13347,
  "uz": 16042,
  "\u2581lopez": 7687,
  "\u2581gi": 20027,
  "\u2581criteria": 8183,
  "\u2581mason": 5703,
  "\u2581cassie": 7871,
  "\u2581pleaded": 11256,
  "\u2581shandong": 24770,
  "\u2581geologic": 21127,
  "\u2581companion": 6454,
  "\u2581nicholls": 26045,
  "\u30b9": 29235,
  "\u2581insides": 18010,
  "\u2581headwaters": 24347,
  "\u2581positively": 12569,
  "\u2581noting": 8075,
  "zawa": 18710,
  "\u2581housemates": 27154,
  "\u2581matthews": 11353,
  "ava": 11464,
  "ulsive": 22006,
  "\u2581step": 2359,
  "\u2581mystical": 16531,
  "\u2581shenzhen": 25557,
  "\u2581gladly": 23988,
  "\u2581juliette": 23698,
  "\u2581scholarships": 14693,
  "uche": 18142,
  "\u2581chromosomes": 25876,
  "\u2581als": 24522,
  "\u2581transition": 5655,
  "\u2581gibbons": 21196,
  "\u2581resurgence": 25305,
  "\u2581ar": 11100,
  "\u2581wake": 4258,
  "\u2581980": 24197,
  "\u2581canberra": 12109,
  "\u2581liege": 16768,
  "\u2581demanded": 5305,
  "ometric": 27995,
  "\u2581\u65b0": 865,
  "\u2581oblivious": 17335,
  "\u2581\u30de": 726,
  "\u2581strengths": 19830,
  "\u2581atlas": 10570,
  "\u2581sox": 8177,
  "\u2581ensembles": 20530,
  "\u2581peacock": 17933,
  "\u2581nomination": 5490,
  "\u2581echo": 8054,
  "\u2581communicating": 19890,
  "\u2581occasionally": 4683,
  "\u2581handler": 27215,
  "\u2581string": 4166,
  "\u2581expansion": 3937,
  "\u2581kenji": 24896,
  "\u2581adjusting": 18160,
  "\u2581\u611b": 856,
  "\u2581flushing": 22521,
  "\u2581guerrilla": 14724,
  "\u2581lace": 11924,
  "\u2581burr": 21717,
  "\u2581smacked": 18205,
  "growth": 25984,
  "\u2581confederation": 10080,
  "al": 1391,
  "\u2581philosophers": 16588,
  "\u2581rousseau": 25870,
  "\u2581wars": 4235,
  "\u2581peasant": 13541,
  "\u2581financial": 2363,
  "\u00a5": 28650,
  "\u2581cloak": 10967,
  "\u2581limitations": 11548,
  "\u2581vampires": 5146,
  "\u2581inheritance": 11841,
  "\u2581converge": 27316,
  "\u2581scarce": 17784,
  "\u2581from": 1016,
  "\u2581educating": 24090,
  "\u2581suriname": 24052,
  "\u2581muslims": 6488,
  "\u2581cognition": 25499,
  "\u2581venerable": 23543,
  "\u2581latvia": 11431,
  "\u2581rash": 22440,
  "\u2581crossroads": 15762,
  "\u2581josiah": 23463,
  "hip": 4607,
  "\u2581receive": 3376,
  "\u026f": 28690,
  "\u2581skull": 6414,
  "bill": 23459,
  "\u2581deliveries": 22536,
  "\u2581rec": 27669,
  "\u2581nz": 19010,
  "\u2581bold": 6784,
  "\u2581civil": 1944,
  "\u2581lurking": 23263,
  "\u2581time": 1054,
  "\u2581insights": 19064,
  "\u2581sewer": 21367,
  "\u2581improper": 23158,
  "\u2581cairns": 20733,
  "\u2581loyalty": 8723,
  "\u2581dale": 7514,
  "\u2581personally": 6716,
  "\u2581parasite": 20200,
  "\u2581thee": 13994,
  "\u2581implying": 19244,
  "\u2581change": 1691,
  "\u2581impacted": 18211,
  "\u2581rake": 25010,
  "\u2581curb": 12732,
  "screen": 17184,
  "\u2581walsall": 28056,
  "\u2581contested": 6261,
  "valent": 23881,
  "\u2581rutgers": 17609,
  "utz": 19269,
  "\u2581ubiquitous": 27500,
  "\u2581visible": 4712,
  "je": 5462,
  "\u2581barges": 26714,
  "\u2581programmes": 7499,
  "\u2581agreements": 9542,
  "\u2581brent": 11897,
  "rst": 11098,
  "\u2581rebellion": 6419,
  "\u2581loops": 14934,
  "\u2581feb": 12116,
  "itive": 12045,
  "\u2581\u03c8": 181,
  "\u2581terrifying": 16084,
  "dal": 8307,
  "\u2581750": 8685,
  "\u2581protested": 10458,
  "\u2581chen": 7804,
  "\u2581reyes": 11578,
  "\u2581ambient": 16095,
  "\u2581lift": 5338,
  "\u2581rubs": 27862,
  "\u2581scanning": 12724,
  "\u2581strips": 11972,
  "\u2581harassed": 27188,
  "dner": 27003,
  "\u2581cutter": 15345,
  "\u2581suppliers": 19143,
  "\u2581beasts": 14111,
  "\u2581try": 2048,
  "oka": 11354,
  "\u2581became": 1152,
  "ee": 3404,
  "\u2581gia": 26701,
  "\u2581dazed": 18722,
  "\u2581pisa": 24474,
  "plex": 18388,
  "\u2581intervals": 13027,
  "\u2581joint": 3103,
  "\u2581though": 1297,
  "naire": 19591,
  "lho": 27063,
  "\u2581mccoy": 15077,
  "\u2581akira": 20618,
  "\u208d": 29089,
  "\u2581threats": 7769,
  "utus": 23000,
  "wr": 12090,
  "\u2581theorem": 8874,
  "\u2581\u3057": 660,
  "\u25811979": 2247,
  "\u2581\u2ea9": 635,
  "\u2581pulitzer": 16620,
  ".": 28627,
  "hopper": 26332,
  "\u2581penetrated": 20655,
  "\u2581pained": 21297,
  "\u2581shoe": 9820,
  "\u25811796": 12887,
  "\u672c": 29404,
  "\u2581recently": 2730,
  "\u2581malay": 11607,
  "\u2581rowland": 19541,
  "\u2581joy": 5571,
  "\u2581selena": 18168,
  "\u2581deformation": 28132,
  "\u2581signaling": 13830,
  "\u2581vega": 14944,
  "\u258117": 1461,
  "\u2581choreographed": 22319,
  "\u2581hardly": 5686,
  "\u2581tool": 5996,
  "\u2581leith": 28013,
  "\u2581fern": 19865,
  "\u2581educational": 3549,
  "\u2581demolished": 6004,
  "bley": 28540,
  "\uff0c": 29517,
  "\u2581losses": 5411,
  "\u2581contestant": 9834,
  "\u02be": 28715,
  "\u2581adversary": 26250,
  "\u2581aldo": 27165,
  "hra": 12494,
  "achi": 20048,
  "\u6587": 29389,
  "\u2581absorbed": 8065,
  "\u2581coincidentally": 26544,
  "\u2581designation": 7261,
  "\u2581privatization": 22968,
  "under": 19826,
  "\u2581brooks": 7381,
  "\u2581ashby": 27731,
  "\u2581rejected": 4839,
  "\u2581reeves": 16893,
  "\u2581genetic": 6405,
  "yat": 25141,
  "\u2581eds": 10987,
  "\u2581latter": 2734,
  "\u2581membership": 4781,
  "\u2581blow": 5273,
  "\u2581sul": 20398,
  "\u2581organ": 4814,
  "gny": 18395,
  "\u2581strengthened": 12951,
  "\u2581barely": 3512,
  "\u2581loyalists": 25592,
  "\u2581sql": 28298,
  "\u2581monasteries": 14949,
  "\u961d": 29498,
  "\u2581swallowing": 17470,
  "xt": 17415,
  "\u2581recounted": 21908,
  "\u2581cleveland": 5046,
  "\u2581respond": 5871,
  "\u2581glider": 17790,
  "\u2581richer": 25110,
  "folding": 20510,
  "\u2581submit": 11042,
  "\u2581brink": 19913,
  "\u2581rubbed": 6505,
  "\u2581fig": 19967,
  "\u2581stumbling": 18732,
  "\u2581\u02e4": 157,
  "zio": 11428,
  "\u2581rolled": 3567,
  "\u2581rica": 10511,
  "\u057f": 28785,
  "\u2581cerro": 24500,
  "\u25811906": 4520,
  "\u2581fish": 2871,
  "\u2581comic": 4023,
  "\u2581pack": 4310,
  "\u2581holy": 3153,
  "\u2581arabia": 8266,
  "\u0e40": 28961,
  "\u2581affluent": 21668,
  "\u2581persisted": 18037,
  "\u2581payne": 12472,
  "\u2581down": 1094,
  "\u2581kaufman": 22701,
  "\u2581hurling": 9841,
  "\u2581instrumentalist": 28255,
  "\u2581reads": 8633,
  "vic": 6905,
  "\u2581\u0272": 126,
  "\u2581leagues": 7123,
  "\u2581prevalent": 14159,
  "way": 3578,
  "\u116e": 29016,
  "gn": 15208,
  "\u2581mount": 3059,
  "\u2581absorbing": 20000,
  "\u2581inhabit": 20492,
  "\u2581lashes": 15010,
  "vino": 25533,
  "\u2581bays": 12935,
  "\u2581bromwich": 26890,
  "\u2581persona": 15117,
  "\u2581writings": 6898,
  "\u2581trusted": 8482,
  "\u2581twice": 2809,
  "\u2581rattle": 22116,
  "\u03b9": 17201,
  "ily": 5590,
  "\u2581joao": 15306,
  "\u2581effective": 3623,
  "ler": 2919,
  "\u2581advancement": 11609,
  "\u2581troubled": 10589,
  "\u2581realise": 18150,
  "nington": 22157,
  "\u2581specialised": 16011,
  "\u2581disks": 23001,
  "shore": 18210,
  "\u2581termination": 17289,
  "\u2581objective": 6865,
  "\u2581floor": 1725,
  "\u2581thousands": 4192,
  "\u2581arches": 12542,
  "\u2581deborah": 14557,
  "\u2581ir": 19870,
  "mark": 9667,
  "eis": 16582,
  "\u2581vale": 9382,
  "\u2581\u592b": 816,
  "\u2581michaels": 16786,
  "zbek": 27735,
  "elling": 22920,
  "\u2581unchanged": 14706,
  "ali": 10477,
  "\u6e05": 29431,
  "\u2581sandra": 11836,
  "\u2581eyebrow": 8524,
  "\u2581deposited": 13142,
  "\u2581bordering": 17301,
  "\u2581extinct": 7550,
  "\u25811814": 9979,
  "world": 10110,
  "\u2581heirs": 14893,
  "\u2581covenant": 15079,
  "\u2581malacca": 27483,
  "\u2581campground": 28146,
  "\u2581clench": 25755,
  "nne": 9089,
  "\u2581least": 1562,
  "\u2581relegation": 8593,
  "\u2581laptop": 11193,
  "\u2581viii": 8939,
  "nds": 17378,
  "otte": 27497,
  "\u2581toward": 1648,
  "\u2581remastered": 18486,
  "\u2581percy": 10314,
  "\u2581administering": 27967,
  "\u2581callum": 14231,
  "pura": 20230,
  "\u2581shirt": 2799,
  "\u2581sensitivity": 13641,
  "\u2581hearing": 3996,
  "\u2581disciples": 16104,
  "die": 9267,
  "nik": 7240,
  "\u2581burgess": 16756,
  "ologists": 15888,
  "\u2581kenyan": 19430,
  "\u2581appropriated": 28225,
  "\u2581betrayed": 11058,
  "\u2581accounting": 8531,
  "\u2581lend": 17498,
  "\u2581slade": 17050,
  "\u2581excess": 8989,
  "\u2581broader": 11370,
  "\u2581consultant": 7932,
  "\u2581deity": 11766,
  "\u2581whistle": 12302,
  "\u2581impossible": 4265,
  "ori": 9052,
  "\u2581\u2022": 531,
  "\u2581info": 17560,
  "lver": 25231,
  "\u2581illusions": 23885,
  "\u2581mold": 17284,
  "eem": 20566,
  "ignment": 23840,
  "\u2581bosnian": 15165,
  "\u2581rugby": 3045,
  "dhi": 18116,
  "\u2581giggled": 14891,
  "\u2581loco": 27048,
  "\ufb01": 29512,
  "\u2581manipulating": 25244,
  "\u2581aristocratic": 18776,
  "\u2581resin": 23606,
  "\u2581broadcasters": 17708,
  "\u2581ceiling": 4896,
  "hh": 22646,
  "\u2581shapiro": 23632,
  "\u2581thrive": 24222,
  "\u2581gut": 8537,
  "\u2581calvert": 23802,
  "\u2581budget": 4168,
  "tadt": 17810,
  "\u2581wylie": 28154,
  "hana": 14790,
  "\u2581ste": 25263,
  "\u2581\u68ee": 885,
  "\u2581businessmen": 16355,
  "mpt": 26720,
  "\u2581disguised": 16332,
  "uld": 20287,
  "\u258160": 2440,
  "\u2581arena": 4198,
  "\u2581jerusalem": 5746,
  "cino": 20083,
  "\u2581better": 1490,
  "\u2581spontaneously": 26493,
  "ow": 4006,
  "\u2581committed": 4464,
  "\u25811832": 9214,
  "\u2581stevens": 7801,
  "\u2581by": 1014,
  "sun": 18731,
  "\u2581banana": 14214,
  "\u2581partisan": 13256,
  "\u2581tub": 13368,
  "\u2581traders": 12068,
  "\u2581accumulation": 19301,
  "kir": 22632,
  "\u2581unrelated": 14144,
  "\u2581siegel": 26998,
  "\u2581throbbing": 16063,
  "haling": 22898,
  "\u2581tampa": 8927,
  "\u2581pillar": 13811,
  "\u2264": 29137,
  "\u2581nepali": 22420,
  "estinal": 18128,
  "\u2581sparkle": 25833,
  "\u2581190": 10829,
  "\u2581capitalism": 15500,
  "\u2581cubic": 10921,
  "\u2581commissioned": 3839,
  "\u2581mendoza": 17023,
  "\u2581occasions": 5644,
  "\u2581tod": 27683,
  "\u2581creates": 8007,
  "\u2581fined": 15983,
  "\u2581up": 1042,
  "ss": 3759,
  "\u2581patriarch": 11628,
  "\u2581acquitted": 17540,
  "\u2286": 29140,
  "oum": 23780,
  "ig": 7006,
  "scia": 26212,
  "\u2581thornton": 13632,
  "\u2581panda": 24464,
  "\u0932": 28872,
  "\u2581joo": 27578,
  "\u7af9": 29461,
  "\u2581\u2218": 602,
  "\u2581townspeople": 26940,
  "\u2581258": 23400,
  "\u2581protectorate": 19396,
  "\u2581comet": 14701,
  "\u2581spell": 5299,
  "ivating": 16443,
  "\u2581stalking": 19072,
  "\u2581thoughtful": 15467,
  "\u2581representatives": 3507,
  "\u2581m2": 24527,
  "\u2581\u2010": 516,
  "\u2581cdp": 7563,
  "\u2581as": 1007,
  "hony": 26631,
  "uter": 18903,
  "\u2581experience": 2327,
  "\u2581rodney": 12900,
  "\u2581bounce": 16525,
  "\u2581gratitude": 14533,
  "\u2581brood": 24567,
  "\u2581hugely": 26566,
  "\u2581preferring": 20395,
  "\u2581tasted": 11597,
  "\u2581stressed": 12235,
  "hoot": 22418,
  "iable": 18212,
  "\u2581leinster": 14686,
  "\u2581ps": 7829,
  "\u2581assert": 19867,
  "\u2581plantations": 13981,
  "entes": 25935,
  "\u2581knight": 4002,
  "ora": 5527,
  "oped": 23176,
  "moor": 16624,
  "\u2581cdc": 25631,
  "\u2581strategies": 8944,
  "\u2581telling": 3131,
  "\u2581trouble": 3392,
  "\u2581wore": 4080,
  "rbin": 26368,
  "\u2581issue": 2279,
  "\u2581tracy": 9557,
  "\u2581comment": 6617,
  "\u2581brasil": 20135,
  "psis": 17411,
  "\u2581annals": 15947,
  "\u2581scheme": 4681,
  "\u2581completely": 2296,
  "\u2581everything": 1675,
  "rich": 12151,
  "\u2581mentioning": 17627,
  "\u2581maya": 8817,
  "ods": 19622,
  "\u2581moat": 24268,
  "\u2581herd": 13908,
  "\u2581advertising": 5477,
  "\u2581terraces": 24635,
  "\u2581airport": 2201,
  "\u2581shed": 7330,
  "\u2581tonga": 19190,
  "\u2581shareholders": 14339,
  "\u2581flags": 8247,
  "\u2581routinely": 18976,
  "\u2581sponge": 24744,
  "\u2581winnie": 26127,
  "\u2581tow": 14807,
  "ports": 24380,
  "\u2581deprived": 16678,
  "\u2581albuquerque": 18336,
  "\u2581picnic": 11697,
  "\u2581540": 19265,
  "\u2581uc": 14386,
  "\u2581braid": 23150,
  "tropical": 24530,
  "\u2581saddam": 23113,
  "leigh": 12617,
  "\u2581teddy": 10391,
  "\u2581tanks": 6288,
  "\u25811970s": 2957,
  "\u2581climates": 23736,
  "\u2581june": 1240,
  "\u2581breeze": 8480,
  "\u2581trinidad": 10858,
  "riation": 17771,
  "\u2581apron": 19378,
  "\u2581presented": 2593,
  "\u2581pastoral": 12647,
  "\u2581\u0580": 240,
  "\u2581associations": 7926,
  "\u2581arousal": 17907,
  "\u2581elliott": 8901,
  "hma": 21446,
  "\u2581bachelor": 4067,
  "aster": 23270,
  "\u2581vulcan": 24995,
  "tain": 17251,
  "\u2581zhu": 14505,
  "\u2581skies": 14719,
  "\u2581relic": 23935,
  "mo": 4304,
  "\u2581predominant": 20049,
  "\u25811874": 6588,
  "\u2581gum": 15033,
  "\u0636": 28829,
  "phus": 24257,
  "\u2581belgium": 4708,
  "\u2581ramirez": 14208,
  "eon": 9244,
  "\u2581advent": 12898,
  "\u2581doing": 1727,
  "\u2581implications": 12496,
  "\u2581trustee": 12211,
  "flict": 28303,
  "\u2581textual": 24306,
  "\u2581pharmaceuticals": 23799,
  "\u2581politics": 3333,
  "\u2581hanson": 16181,
  "\u2581villains": 15221,
  "\u2581\u6211": 858,
  "\u2581heating": 9810,
  "\u2581narrowly": 10868,
  "\u2581caused": 2305,
  "et": 2390,
  "\u2581rhyme": 19624,
  "\u2581timing": 9986,
  "\u2581eritrea": 25042,
  "ged": 5001,
  "\u2581philanthropy": 28293,
  "\u2581under": 1107,
  "\u2581corners": 7415,
  "\u2581release": 1715,
  "\u2581pitchfork": 21357,
  "\u2581bluegrass": 20288,
  "\u2581racetrack": 27437,
  "\u2581ieee": 14370,
  "\u2581sheng": 24983,
  "\u2581law": 1377,
  "\u2581k": 50,
  "active": 18622,
  "\u2581sun": 2105,
  "\u2581trump": 7400,
  "\u2581freddy": 18345,
  "\u2581onion": 19951,
  "\u25811734": 26369,
  "ked": 7128,
  "\u2581pepsi": 26239,
  "\u2581derivatives": 15944,
  "\u27e9": 29158,
  "\u2581drummond": 18268,
  "\u2581churning": 25767,
  "\u2581mu": 13165,
  "kla": 25088,
  "\u2581nominate": 22390,
  "\u2581nina": 8403,
  "\u2581kun": 27921,
  "\u2581glacial": 16383,
  "\u8eca": 29482,
  "\u2581fontaine": 24751,
  "ngen": 24999,
  "hin": 9608,
  "\u2581huntsville": 27494,
  "\u2581ordered": 2643,
  "\u2581elemental": 18531,
  "\u2581underside": 16315,
  "\u2581wait": 2526,
  "\u2581edmond": 20775,
  "\u2075": 29076,
  "ml": 18970,
  "\u2581auschwitz": 23365,
  "\u2581ultimately": 3823,
  "\u2581individuals": 2635,
  "\u27e8": 29157,
  "\u2581screwed": 13182,
  "\u2581revealed": 2938,
  "\u2581shards": 22329,
  "\u2581nazi": 5396,
  "\u2581couple": 2234,
  "\u2581courtship": 27594,
  "\u2581sob": 16542,
  "\u5206": 29303,
  "\u2581\u56fd": 802,
  "nst": 22810,
  "\u2581wary": 14707,
  "\u2581encourage": 7629,
  "\u2581baltic": 10277,
  "\u2581verve": 28232,
  "ant": 3632,
  "\u2581insect": 13213,
  "\u2581durham": 8298,
  "\u2581differing": 15967,
  "nded": 24850,
  "\u2581shoots": 10760,
  "\u2581loaned": 12192,
  "\u2581conscience": 12456,
  "\u2581moss": 9638,
  "\u2581reflected": 6688,
  "\u2581redesignated": 10838,
  "\u2581gives": 2959,
  "\u2581flavor": 13896,
  "\u2581mab": 25663,
  "\u2581youtube": 6860,
  "\u2581\u0634": 286,
  "\u2581constance": 14715,
  "\u2581hostage": 12448,
  "\u2581equality": 8947,
  "\u2581sixteen": 6034,
  "\u2581voltage": 9006,
  "ox": 10638,
  "\u2581window": 2334,
  "\u2581\u8279": 942,
  "\u2581superstructure": 27393,
  "\u2581consume": 15680,
  "\u2581rammed": 26655,
  "vert": 15876,
  "\u2581pam": 13091,
  "\u2581techno": 20418,
  "\u2581pick": 3062,
  "\u2581speculation": 11145,
  "\u2581limbs": 9728,
  "\u2581olga": 14587,
  "emy": 25664,
  "\u2581uniformly": 26425,
  "\u2581emphasizes": 19620,
  "\u2581610": 18829,
  "\u2581swamp": 10965,
  "aar": 25528,
  "\u2581fibre": 19964,
  "\u2581diversity": 7908,
  "\u2581forster": 20318,
  "\u2581retention": 19127,
  "\u2581\u30a1": 695,
  "\u2581tucking": 24058,
  "\u2581wastewater": 27271,
  "\u2581directly": 2497,
  "\u2190": 29113,
  "\u2581portraying": 16276,
  "\u2581viet": 18712,
  "ulton": 21147,
  "\u2581postmaster": 19709,
  "\u2581\u0565": 226,
  "\u2581baskets": 24948,
  "\u2581monk": 7286,
  "\u258124": 1486,
  "\u2581hunt": 4692,
  "\u2581iceland": 9401,
  "idia": 28344,
  "\u2581motionless": 18919,
  "\u2581roam": 24730,
  "\u2581citizen": 5928,
  "\u2581existing": 3495,
  "\u4e8b": 29279,
  "\u25811723": 25623,
  "\u2581freddie": 14530,
  "\u2581chewed": 17364,
  "\u2581muffled": 14785,
  "\u2581\u03bf": 172,
  "\u2581mediation": 25437,
  "\u2018": 29057,
  "sto": 15035,
  "\u2581channels": 5835,
  "\u2581attracted": 5298,
  "\u2581vector": 8209,
  "\u2581\u208d": 561,
  "\u2581\u02b7": 146,
  "\u2581songwriters": 19604,
  "\u2581tournament": 1979,
  "\u2581involved": 1922,
  "ropolis": 22250,
  "\u2581bike": 6999,
  "\u2581announces": 16474,
  "\u2581andre": 6215,
  "\u2581revised": 7003,
  "\u2581minions": 27073,
  "meter": 21830,
  "\u2581permit": 8148,
  "linson": 24053,
  "\u2581shadow": 4194,
  "aling": 20684,
  "ability": 7012,
  "\u2581pastor": 8222,
  "mot": 17940,
  "\u2581lyrics": 3583,
  "\u2581professional": 1660,
  "\u0bbe": 28933,
  "rling": 21038,
  "\u2581calder": 18349,
  "\u2581clocks": 19942,
  "\u2581conical": 23752,
  "\u2581swore": 11862,
  "\u2581russians": 11515,
  "\u2581yeah": 2400,
  "nagar": 13348,
  "\u2581skepticism": 26938,
  "\u2581sai": 17954,
  "\u2581semifinals": 7567,
  "\u2581expenditures": 21699,
  "\u2581greensboro": 26907,
  "\u2581415": 23692,
  "hui": 19554,
  "\u2581radius": 11179,
  "\u2581edo": 17316,
  "\u2581dickinson": 16592,
  "\u2581rs": 11669,
  "\u2581\u300c": 644,
  "\u2581aston": 13329,
  "\u2581\u72ac": 911,
  "\u2581265": 19551,
  "\u2581winding": 11790,
  "\u2581pdf": 10137,
  "\u2581emilia": 19419,
  "\u2581carbon": 5353,
  "\u2581deciding": 9563,
  "\u2581tries": 4365,
  "\u2581ev": 22410,
  "\u2581epidemic": 15313,
  "\u2581seek": 5150,
  "\u2581climbed": 5591,
  "\u2581scratched": 14049,
  "\u25811630": 23996,
  "\u2581comparable": 11437,
  "\u2581100": 1533,
  "\u2581fidelity": 21627,
  "\u2581arrests": 16617,
  "\u2581demand": 4159,
  "\u2581figured": 5620,
  "\u2581tiled": 25512,
  "\u2581\u0633": 285,
  "\u2581villas": 26319,
  "ssa": 10490,
  "\u2581genuinely": 14960,
  "ifiers": 27297,
  "\u2581\u5b89": 823,
  "\u2581produces": 6139,
  "\u2581urged": 8722,
  "\u2581moscow": 3926,
  "\u2581oddly": 14058,
  "\u2581pickup": 14375,
  "\u2581four": 1178,
  "\u2581faults": 18401,
  "\u2581celebrated": 5336,
  "\u2581congregations": 15852,
  "\u2581acquired": 2736,
  "\u2581trial": 2981,
  "\u2581kraft": 25682,
  "\u2581impatiently": 18953,
  "\u2581typhoon": 14395,
  "\u2581clerical": 22108,
  "\u2581buckingham": 16838,
  "\u2581publisher": 5676,
  "\u2581signing": 5610,
  "\u2581yokohama": 19509,
  "\u2581brewing": 15007,
  "\u2581wagner": 9306,
  "\u2581escaping": 12004,
  "\u2581chiefly": 14899,
  "\u2581americas": 9927,
  "\u2581moan": 12675,
  "\u2581butt": 9009,
  "\u2581kb": 20679,
  "\u2581endless": 9868,
  "\u2581ljubljana": 20590,
  "\u2581tae": 21299,
  "\u2581redeveloped": 27055,
  "\u2581emeritus": 11374,
  "\u2581insult": 14303,
  "\u2581forearm": 15150,
  "bana": 18447,
  "rso": 24303,
  "\u30eb": 29261,
  "\u2581vip": 20724,
  "\u2581napkin": 19621,
  "\u2581gustavo": 23803,
  "aby": 20277,
  "\u2581fife": 19539,
  "oides": 24066,
  "\u2581\u026f": 125,
  "\u2581enhance": 10600,
  "\u2581dean": 3672,
  "\u2581\u00f7": 102,
  "\u2581calgary": 9114,
  "kovsky": 22831,
  "\u2581bait": 16397,
  "enna": 23399,
  "\u2581consists": 2776,
  "\u2581inhibitors": 24458,
  "\u2581308": 23234,
  "fest": 13083,
  "\u25811718": 25997,
  "iling": 15283,
  "\u2581exiled": 13148,
  "\u2581aden": 15300,
  "\u2581kilkenny": 16133,
  "\u2581acheron": 20429,
  "\u2581\u3081": 683,
  "\u2581vile": 24049,
  "\u03c5": 28737,
  "\u2581vertices": 17986,
  "\u2581beetles": 13540,
  "\u2581justices": 18869,
  "\u2581online": 2786,
  "nbc": 27959,
  "\u2581ahmed": 9210,
  "\u2581counters": 23096,
  "\u2581fallen": 4359,
  "\u2581adolf": 11502,
  "\u2581watt": 14233,
  "\u2581squares": 13322,
  "\u062b": 28820,
  "shima": 23774,
  "\u2581qualities": 10649,
  "\u2581items": 4169,
  "\u2581aidan": 11645,
  "eers": 21864,
  "\u2581pest": 19741,
  "ster": 5240,
  "\u2581illness": 6357,
  "\u2581schleswig": 20175,
  "\u2581entry": 3445,
  "\u2581disgusting": 18426,
  "\u2581emilio": 17646,
  "\u2581recreational": 9519,
  "\u2581alton": 25376,
  "ivar": 27741,
  "\u2581vamps": 23066,
  "\u2581madness": 11015,
  "\u77f3": 29450,
  "\u2581luca": 14606,
  "\u2581rubber": 7905,
  "alla": 24427,
  "\u2581congressional": 6742,
  "\u2581grinding": 15155,
  "\u2581terra": 13405,
  "\u2581grandchildren": 12630,
  "\u2581owen": 6293,
  "\u2581\u099f": 362,
  "\u2581constructed": 2835,
  "\u2581ethical": 11964,
  "\u2581organism": 14925,
  "\u25811763": 17434,
  "\u307e": 29205,
  "mental": 25903,
  "\u2581midsummer": 27173,
  "\u1d62": 18111,
  "\u2581struggles": 10787,
  "\u2581courts": 4436,
  "\u2581sideways": 11581,
  "\u2581cbe": 14854,
  "\u2581crude": 12589,
  "\u2581ankara": 19314,
  "\u2581padres": 20579,
  "nath": 15209,
  "\u2581institutional": 11150,
  "odes": 18849,
  "\u2581\u1109": 464,
  "\u2581knives": 12229,
  "\u2581bodo": 27139,
  "\u2581founded": 1633,
  "ctum": 26274,
  "\u2581committing": 15875,
  "\u2581engagements": 19585,
  "\u2581rice": 4787,
  "\u2581bit": 1980,
  "\u2581sometime": 7813,
  "\u2581dummy": 23371,
  "\u2581chatter": 23693,
  "\u25811846": 8246,
  "\u2581,": 13,
  "\u2581\u30ec": 737,
  "inen": 20822,
  "\u2581io": 21836,
  "\u2581prohibiting": 25327,
  "een": 11131,
  "\u2581governor": 2101,
  "\u2581fired": 4047,
  "\u2581chieftain": 25627,
  "\u0634": 28827,
  "\u2581font": 14491,
  "\u2581jewelry": 10914,
  "\u2581wharf": 15437,
  "\u2581harmed": 24598,
  "\u2581\u11b7": 490,
  "\u2581testing": 4606,
  "\u2581concentration": 5695,
  "\u2581parasitic": 25047,
  "\u2581squinting": 28158,
  "\u2581author": 2168,
  "\u2581songwriting": 13031,
  "\u2581described": 1651,
  "\u2581primaries": 26421,
  "\u2581suburban": 8284,
  "\u2581brush": 7250,
  "\u2581barbarians": 27058,
  "\u05d5": 28794,
  "\u2581investigation": 3814,
  "\u2581voters": 6208,
  "\u2581teen": 8460,
  "\u2581baltimore": 5224,
  "\u2581movement": 1931,
  "\u2581roller": 10222,
  "\u2581currie": 19669,
  "\u2581dion": 18544,
  "\u2581\u3093": 694,
  "\u2581setting": 3294,
  "\u2581settlers": 6324,
  "\u2581rents": 27208,
  "\u2581ser": 13264,
  "\u2581considerably": 8841,
  "\u2581seem": 3027,
  "\u2581conferred": 14188,
  "\u2581comfortable": 5627,
  "\u2581tarzan": 23568,
  "\u2581punishments": 28117,
  "\u2581solos": 23341,
  "\u2581frown": 10332,
  "\u2581obligation": 13989,
  "\u2581starting": 2227,
  "\u2581creative": 4543,
  "\u2581prick": 23860,
  "\u2581abortion": 10326,
  "\u2581updated": 6174,
  "dial": 26186,
  "ency": 10918,
  "\u2581magnum": 18693,
  "\u2581exclusive": 6264,
  "tiv": 28070,
  "\u2581museums": 8943,
  "\u2581lucille": 27018,
  "\u2581euro": 8946,
  "\u2581tornado": 10354,
  "\u2581deterioration": 25120,
  "\u2581normally": 4375,
  "\u2581monarchs": 18801,
  "\u2581curated": 16942,
  "\u2581brows": 10349,
  "\u2581before": 1080,
  "\u25811777": 15146,
  "matic": 11646,
  "\u2581\u0937": 340,
  "\u2581harmonic": 18454,
  "\u2581falsely": 22125,
  "\u2581stipulated": 24731,
  "\u2581\u30aa": 702,
  "\u2581vineyard": 17623,
  "\u2581goods": 4352,
  "to": 2408,
  "\u2581gregg": 17283,
  "\u2581smirk": 14083,
  "bag": 15080,
  "\u2581autism": 18467,
  "\u2581useless": 10811,
  "\u2581bradford": 9001,
  "#": 28616,
  "gina": 19878,
  "try": 10131,
  "logies": 20617,
  "\u2581monsoon": 18185,
  "\u2581breeding": 7121,
  "\u2581universe": 4306,
  "ego": 19267,
  "\u2581pun": 25138,
  "\u2581hug": 7551,
  "\u2581banning": 20031,
  "\u2581demetrius": 27369,
  "\u5b66": 29345,
  "\u2581persuasion": 26579,
  "\u2208": 29126,
  "\u25811000": 5696,
  "\u2581sioux": 15617,
  "eran": 22171,
  "\u2581lass": 26335,
  "\u2581occasion": 5688,
  "\u2581spite": 7743,
  "\u2581supervisor": 11368,
  "\u2581apocalyptic": 26662,
  "ke": 2491,
  "mple": 22346,
  "\u2581curtis": 8197,
  "\u2581else": 1844,
  "\u2581flowing": 7579,
  "\u2581socialism": 13651,
  "\u2581shared": 3209,
  "\u2581ian": 3777,
  "\u2581doi": 8195,
  "\u2581arcadia": 24180,
  "\u2581battalions": 9159,
  "train": 22656,
  "\u2581pistol": 7781,
  "eria": 10612,
  "\u2581commodore": 11959,
  "\u2581\u11bc": 492,
  "\u2581oder": 26217,
  "\u2581weekdays": 18761,
  "\u2581statute": 10673,
  "\u2581shakes": 9856,
  "ysis": 19962,
  "emon": 25943,
  "\u2581ages": 4537,
  "\u2581erratic": 23124,
  "\u2581autonomous": 7394,
  "\u2581brute": 25130,
  "\u2581lu": 10322,
  "\u2581consumed": 9204,
  "\u2581eine": 26667,
  "\u2581locomotives": 6832,
  "\u2581dunn": 13147,
  "\u2581workers": 2669,
  "\u2581rape": 8042,
  "rella": 20837,
  "\u2581drills": 27310,
  "\u2581\u03c3": 176,
  "\u2581kensington": 16777,
  "\u2581sails": 16555,
  "ares": 16935,
  "ship": 8652,
  "\u2581combo": 24027,
  "oper": 24920,
  "hang": 17005,
  "\u2581delegation": 9658,
  "\u2581pilots": 7223,
  "\u2581shapes": 9468,
  "naud": 25162,
  "\u2581shiva": 11537,
  "\u2581\u2190": 586,
  "\u2581mathematicians": 28376,
  "\u2581invited": 3780,
  "\u2581brigadier": 8902,
  "\u2581quarry": 11909,
  "zow": 21672,
  "\u2581piano": 2684,
  "\u2581brand": 3437,
  "\u2581warmer": 15678,
  "\u2581put": 1406,
  "\u2581dynamics": 9951,
  "\u1d49": 29037,
  "\u2581retained": 5027,
  "ao": 6115,
  "\u2581adolph": 27566,
  "\u2581mage": 16456,
  "\u2581emirates": 13043,
  "rn": 5828,
  "\u2581medal": 2103,
  "\u2581slam": 8557,
  "\u2581intersect": 28263,
  "\u2581tidy": 28371,
  "\u2581bikes": 17107,
  "\u2581clicks": 28227,
  "\u2581prized": 24697,
  "\u2581eurovision": 11716,
  "jean": 26689,
  "urg": 11516,
  "\u2581shows": 2067,
  "\u2581enthusiastic": 13729,
  "\u2581sandy": 6527,
  "house": 3582,
  "cr": 25777,
  "\u2581abusive": 19678,
  "\u2581hopped": 16232,
  "\u2581kam": 26831,
  "\u25811682": 28480,
  "\u2581mx": 24632,
  "\u2581pairing": 21780,
  "\u2581boer": 18947,
  "\u2581popped": 9540,
  "\u2581explanation": 6528,
  "\u2581retains": 13569,
  "\u2581mouthful": 27464,
  "\u2581pharaoh": 21091,
  "\u2581regiments": 9437,
  "\u2581butterfly": 8114,
  "\u2581popping": 19097,
  "\u2581unknown": 3244,
  "\u2581explanations": 16961,
  "\u2581assuming": 9264,
  "\u2581imperial": 3463,
  "\u2581homecoming": 19774,
  "tes": 3572,
  "\u2581theologians": 28015,
  "\u2581respiratory": 15466,
  "ressed": 15121,
  "ophone": 24234,
  "\u2581innsbruck": 27916,
  "\u2581colloquially": 22994,
  "\u2581cloud": 5114,
  "ucher": 21370,
  "\u2581economies": 17732,
  "\u2581grumbled": 16032,
  "\u2581plaque": 10954,
  "\u2581fling": 26657,
  "\u2581apr": 18806,
  "ssee": 28524,
  "\u2581insist": 17294,
  "\u2581fu": 10867,
  "\u2581happening": 5232,
  "22": 18319,
  "\u2581lacy": 18961,
  "\u2581charismatic": 22918,
  "\u2581electron": 9498,
  "\u2581simpler": 15327,
  "ba": 2678,
  "\u2581hal": 10087,
  "\u2581afrikaans": 27675,
  "\u2581commentaries": 20243,
  "\u2581epa": 18046,
  "\u2581alejandro": 15812,
  "\u2581how": 1132,
  "\u2581jr": 2783,
  "\u2581harmonica": 15529,
  "\u2581consecration": 23732,
  "ady": 17634,
  "\u2581acts": 3492,
  "\u2581nineteenth": 8139,
  "\u2581ct": 13933,
  "\u2581flour": 12726,
  "\u2581disturbances": 23537,
  "dya": 24840,
  "\u2581searing": 24766,
  "\u2581researching": 19061,
  "\u2581apache": 14897,
  "\u2581surpassed": 14604,
  "\u2581emily": 5255,
  "\u2581correspondence": 10063,
  "ho": 5808,
  "\u2581benign": 27380,
  "\u2581austrians": 27441,
  "\u2581cushions": 26207,
  "\u2581crawled": 11427,
  "\u2581\u6b62": 890,
  "\u2581lyon": 9243,
  "pl": 23761,
  "\u2581\u03be": 171,
  "\u2581troop": 9125,
  "typic": 22188,
  "\u2581doubles": 6697,
  "\u2581coincide": 18682,
  "\u2581bangkok": 11629,
  "\u2581ked": 15137,
  "\u2581repeats": 16995,
  "\u2581routledge": 20182,
  "\u2581sneaking": 19729,
  "\u9fb8": 29511,
  "shi": 5184,
  "\u2581vitro": 24716,
  "chner": 27256,
  "ssing": 17967,
  "\u2581hyderabad": 12626,
  "\u2581supernatural": 10191,
  "\u2581\u1102": 459,
  "ivity": 6732,
  "\u2581yes": 1750,
  "\u2581wandering": 12073,
  "\u2581alternative": 3524,
  "\u2581tastes": 15960,
  "ook": 13661,
  "\u2581progress": 4084,
  "\u2581stability": 8213,
  "\u2581unless": 3985,
  "\u2581pittsburgh": 5280,
  "\u2581easily": 3091,
  "\u2581locations": 4271,
  "tters": 23170,
  "\u2581government": 1233,
  "\u2581\u20a9": 576,
  "\u2581oral": 7702,
  "ation": 2372,
  "\u2581german": 1448,
  "\u2581seduce": 22201,
  "\u2581staged": 8815,
  "\u2581baby": 2338,
  "\u2581contrasted": 21087,
  "\u2581fracture": 18585,
  "\u2581arbor": 18681,
  "\u2581imposed": 8772,
  "\u2581celebrities": 11332,
  "\u2581rescue": 4345,
  "\u2581standardized": 15369,
  "\u2581sacrifice": 7690,
  "\u2581aims": 7706,
  "ario": 15845,
  "\u2581pains": 19400,
  "vsky": 14906,
  "sling": 27888,
  "head": 3976,
  "\u2581digit": 14342,
  "\u2581disagreements": 22147,
  "\u2581presumably": 9714,
  "\u2581systems": 2003,
  "gan": 4291,
  "\u2581hollywood": 4367,
  "\u2581horace": 11759,
  "\u2581par": 10970,
  "\u2581creating": 3528,
  "64": 20086,
  "\u2581profit": 4620,
  "\u2581casper": 23604,
  "\u2581royce": 13791,
  "\u2581doors": 3305,
  "\u2581buffalo": 5903,
  "\u2581airways": 12097,
  "\u2581invincible": 24020,
  "\u2581frescoes": 22362,
  "\u2581cheyenne": 16780,
  "\u2581eduardo": 13848,
  "\u2581volley": 27075,
  "\u2581pc": 6475,
  "\u2581laurie": 15452,
  "\u2581taught": 3038,
  "\u2581intercourse": 22200,
  "\u2581reset": 24143,
  "\u2581malls": 24945,
  "\u25811856": 7710,
  "\u25811635": 26428,
  "\u2581hostile": 9422,
  "\u2581blink": 11375,
  "\u2581chronicles": 10908,
  "\u2581honourable": 16166,
  "\u2581deserves": 16212,
  "\u057a": 28782,
  "hyllum": 26752,
  "lley": 24107,
  "pps": 27283,
  "\u2581navarro": 22526,
  "\u2581boston": 2733,
  "\u2581overhead": 7966,
  "\u2581protestants": 18594,
  "\u2581trenches": 18876,
  "oles": 28113,
  "\u2581advised": 8451,
  "\u2581\u0f58": 435,
  "\u2581jurisdiction": 6362,
  "\u2581masks": 14808,
  "\u2581astronomers": 25359,
  "\u2581aryan": 25032,
  "\u2581judaism": 12727,
  "\u2581stale": 25731,
  "nent": 20578,
  "istles": 27740,
  "\u5f8c": 29374,
  "\u2581personnel": 4075,
  "\u2581\u057e": 238,
  "\u2581streets": 3536,
  "\u2581cuban": 8644,
  "\u2581clarke": 7361,
  "\u2581flex": 22953,
  "\u5dff": 29365,
  "\u2581suppose": 5816,
  "\u2581sparse": 19290,
  "\u2581reconstructed": 13860,
  "\u2581mitochondrial": 22081,
  "\u2581pol": 13957,
  "\u2581rogue": 11408,
  "\u2581sliding": 7060,
  "\u2581sued": 11925,
  "\u2581rachel": 4588,
  "abi": 27520,
  "\u2581mates": 13713,
  "gue": 8079,
  "\u2581swiss": 4366,
  "\u05e5": 28810,
  "\u2581adored": 27458,
  "\u2581remote": 5558,
  "\u2581structure": 2254,
  "lins": 23414,
  "\u2581morris": 5386,
  "\u05d0": 28790,
  "dents": 27988,
  "\u2581smyth": 27105,
  "\u2581linux": 10605,
  "\u2581whiskey": 12805,
  "\u2581workings": 23886,
  "\u2581316": 22982,
  "\u2581loneliness": 19336,
  "\u2581holland": 6937,
  "xx": 19350,
  "missive": 26878,
  "vers": 13030,
  "\u2581passport": 11295,
  "\u2581gunners": 28002,
  "\u2581richie": 13413,
  "\u2581wellness": 24862,
  "\u2581\u2194": 590,
  "\u2581\u0631": 283,
  "\u2581ernesto": 21430,
  "\u2581syriac": 23111,
  "\u2581entrepreneur": 9672,
  "\u2581majors": 14281,
  "\u2581elliptical": 26215,
  "\u2581flutes": 27455,
  "\u2581aging": 11522,
  "\u2581distribute": 15064,
  "\u2581ti": 13843,
  "\u2581bavarian": 14099,
  "\u2581\u266d": 630,
  "\u2581hobbs": 22750,
  "\u2581strewn": 24261,
  "lth": 23660,
  "\u2581slowed": 8786,
  "\u2581lau": 20362,
  "\u2581tandem": 17233,
  "\u2581wilton": 25409,
  "\u2581prompted": 8471,
  "\u30ea": 29260,
  "\u2581boris": 10237,
  "\u2581be": 1025,
  "\u2581syndication": 25975,
  "\u2581shepherd": 10135,
  "\u2581jacob": 5215,
  "\u056f": 28776,
  "\u2581constructing": 14698,
  "\u2581\u2227": 605,
  "\u2581bypass": 10828,
  "sts": 11839,
  "iter": 20648,
  "\u2581jeep": 13009,
  "\u2581attitude": 6731,
  "\u6bd4": 29418,
  "\u2581dodd": 20260,
  "\u05e3": 28808,
  "\u2581rink": 17418,
  "\u2581autonomy": 11647,
  "\u2581do": 1082,
  "\u2581minnesota": 4137,
  "\u2581orchestras": 18507,
  "\u2581leftist": 23249,
  "\u2581catfish": 22725,
  "\u2581mean": 1814,
  "\u2581missing": 3396,
  "\u2581vista": 12007,
  "\u2581utter": 13397,
  "\u2581sly": 17232,
  "onne": 17258,
  "\u2581benedictine": 20141,
  "\u2581delegate": 10851,
  "\u2581inclusion": 9504,
  "\u2581jill": 9456,
  "\u2581persistent": 13518,
  "\u2581compulsory": 13772,
  "idium": 27744,
  "\u2581lifestyle": 8582,
  "\u2581305": 19407,
  "\u2581scale": 3096,
  "\u2581airline": 7584,
  "aking": 14497,
  "sby": 13480,
  "\u2581sparked": 12979,
  "\u2581baptist": 6552,
  "\u25811911": 4186,
  "\u2581puff": 22895,
  "\u2581teaching": 3254,
  "\u2581official": 1882,
  "\u2581barber": 12364,
  "\u2581astronomy": 11801,
  "\u2581piece": 2540,
  "\u2581\u8857": 949,
  "\u2581routed": 18580,
  "\u2581425": 22287,
  "holes": 18992,
  "\u2581causeway": 22338,
  "\u2581vermont": 7841,
  "\u0561": 28768,
  "\u2581bacon": 10613,
  "\u25811950": 2927,
  "\u2581flats": 13203,
  "\u2581dawned": 26704,
  "\u2581coral": 10036,
  "\u2581administered": 7566,
  "\u2581guarantee": 10304,
  "\u2581shovel": 23598,
  "\u2581ratings": 7601,
  "\u2581greedy": 19507,
  "\u2581attitudes": 12820,
  "\u2581rescued": 9150,
  "\u2581alongside": 3079,
  "\u2581shrugs": 22824,
  "\u2581audio": 4748,
  "\u2581subscription": 14004,
  "\u2581doctor": 2462,
  "\u2581marlene": 25923,
  "him": 13343,
  "\u2581approximation": 19169,
  "\u2581wired": 16504,
  "\u2581sufficient": 6184,
  "\u2581halves": 22674,
  "\u2581bush": 4749,
  "\u2581winners": 3793,
  "movable": 24663,
  "\u2581overlook": 26592,
  "\u2581engineered": 12687,
  "\u2581wards": 10684,
  "\u2581ordeal": 22306,
  "mba": 10203,
  "\u2581melted": 11503,
  "\u2581melting": 12723,
  "\u2581ornate": 17101,
  "\u2581enhancement": 21417,
  "\u2581phosphate": 16346,
  "\u2581newly": 3399,
  "\u6a4b": 29413,
  "\u2581kirk": 10334,
  "iner": 25457,
  "ray": 8449,
  "\u03c8": 28740,
  "\u2581meredith": 9637,
  "\u2581usc": 14531,
  "\u2581invaders": 16349,
  "\u2581units": 2199,
  "ub": 11085,
  "\u2581zebra": 28147,
  "ulin": 17641,
  "\u2581crocodile": 20845,
  "\u2581conditions": 2787,
  "\u2581practised": 19441,
  "\u2581increasing": 3854,
  "\u2581spaniards": 20001,
  "ym": 23337,
  "\u2581candidacy": 16059,
  "\u2581mythical": 18338,
  "\u2581olympian": 24979,
  "nding": 14685,
  "\u2581knowing": 3211,
  "\u2581comrade": 26663,
  "\u2581rose": 2125,
  "\u2581hong": 3293,
  "\u2581conductors": 22398,
  "\u2581follower": 21401,
  "\u2581juvenile": 10801,
  "\u2581cheap": 9038,
  "\u2581\u540c": 797,
  "mann": 4806,
  "\u2581presley": 16231,
  "\u2581startled": 8698,
  "\u2581wrap": 9238,
  "\u2581420": 16444,
  "\u02bb": 28713,
  "\u2581acre": 6458,
  "\u2581owns": 7619,
  "\u2581jakob": 18110,
  "\u2581battle": 1647,
  "\u2581geek": 28296,
  "\u2581potomac": 17856,
  "\u2581hopeful": 16774,
  "\u2581lantern": 11858,
  "\u2581\u0632": 284,
  "\u0995": 28891,
  "\u2581thigh": 9122,
  "\u2581supposed": 3013,
  "\u2581sunshine": 8611,
  "otic": 19216,
  "\u2581rise": 3127,
  "tea": 26060,
  "\u2581frustrated": 9208,
  "\u2581generator": 12105,
  "\u2581vhf": 26529,
  "\u2581manually": 20120,
  "\u2581georges": 9872,
  "\u2581fairy": 7869,
  "\u2581arturo": 19522,
  "\u2581lakeside": 27703,
  "mble": 18663,
  "\u2581neue": 26715,
  "\u2581baker": 5245,
  "\u2581entertaining": 13038,
  "\u2581comedic": 20701,
  "hari": 17430,
  "ode": 9246,
  "\u2581contemporary": 2826,
  "\u2581automatically": 7075,
  "\u2581realising": 26506,
  "\u2581warship": 20907,
  "\u2581xv": 14568,
  "\u2581backseat": 18980,
  "lip": 14002,
  "\u2581spirit": 3384,
  "\u2581persuaded": 10768,
  "\u2581\u6c0f": 894,
  "\u2581subtropical": 10937,
  "\u2581jogging": 27235,
  "\u2581chickens": 20870,
  "\u2581howling": 21300,
  "\u6751": 29406,
  "\u2581sailors": 10281,
  "\u2581und": 5153,
  "buro": 22672,
  "lma": 18147,
  "\u2581samuel": 4214,
  "\u063a": 28833,
  "\u2581leonardo": 13722,
  "\u0452": 28760,
  "\u2581miocene": 25928,
  "\u2581grasslands": 25185,
  "\u2581phased": 20720,
  "\u2581surveys": 11267,
  "glio": 28482,
  "\u2581tremendous": 13390,
  "\u2581hickory": 27160,
  "\u2581weave": 24310,
  "\u2581hastily": 14791,
  "\u2581boomed": 27910,
  "\u2581peg": 24041,
  "burg": 3647,
  "\u2581confesses": 21828,
  "\u2581sponsors": 12164,
  "\u2581indus": 26748,
  "\u2581graz": 25920,
  "\u2581archival": 21798,
  "\u2581negative": 3999,
  "\u2581wi": 14538,
  "\u2581police": 1612,
  "\u2581tortricidae": 26685,
  "\u2581powers": 3206,
  "\u2092": 29093,
  "bi": 4640,
  "\u30df": 29252,
  "\u2581aside": 4000,
  "\u2581sh": 13023,
  "\u2581sanctuary": 7495,
  "\u2581haryana": 22263,
  "\u2581ministers": 6769,
  "ou": 6142,
  "\u2581kanye": 28272,
  "opers": 26344,
  "\u2581groups": 1969,
  "\u2581turbines": 16398,
  "\u2581disability": 10982,
  "\u2581constantine": 11792,
  "\u2581eastward": 16320,
  "\u2581daphne": 15849,
  "\u2581nor": 3498,
  "wart": 17369,
  "cable": 20172,
  "cial": 12249,
  "\u2581quiver": 28051,
  "gram": 12115,
  "\u2581princely": 21773,
  "\u2581rosie": 14822,
  "\u2581278": 23711,
  "\u10dc": 28987,
  "\u2581neglect": 18048,
  "\u2581resurrection": 14220,
  "hiko": 21206,
  "\u2581administration": 2449,
  "\u2581commercially": 10090,
  "\u2581baseline": 25165,
  "\u2581restless": 14037,
  "\u2581converse": 22707,
  "pani": 25571,
  "idad": 26895,
  "\u2581embassy": 7410,
  "\u2581swans": 25701,
  "\u2581gymnastics": 13004,
  "\u10dd": 28988,
  "\u2581often": 1413,
  "\u2581belarusian": 14628,
  "\u2581vinegar": 28389,
  "\u25811909": 4558,
  "\u2581strictly": 8977,
  "\u2581secretaries": 22662,
  "\u2581approach": 2923,
  "\u2581knitting": 25100,
  "\u2581rates": 5167,
  "\u2581jumped": 4600,
  "\u2581palace": 3188,
  "\u2581emission": 14762,
  "\u2581mainland": 7242,
  "\u2581lucinda": 27263,
  "\u2581ruled": 4453,
  "\u2581reckon": 28074,
  "\u2581monsters": 8221,
  "\u2581planets": 10360,
  "\u2581groom": 17089,
  "\u2581acacia": 23768,
  "\u2581si": 8035,
  "genase": 27837,
  "iac": 19471,
  "\u25811959": 2853,
  "\u2581manuscripts": 9487,
  "\u2581curate": 26532,
  "\u2581refueling": 22028,
  "\u2581dunne": 25555,
  "\u2581return": 1711,
  "\u2581frigates": 21835,
  "lore": 19188,
  "\u2581aquitaine": 23975,
  "\u2581\u09b0": 375,
  "\u2581foreword": 22061,
  "\u2581mercer": 12083,
  "\u2581nonsense": 13654,
  "\u2581superseded": 18888,
  "\u2581munitions": 20063,
  "\u2581acclaim": 9763,
  "\u2581godfather": 22836,
  "\u2581tre": 28463,
  "\u2581nanjing": 20457,
  "\u2581barrage": 18361,
  "\u2581secular": 9646,
  "ages": 12925,
  "\u2581189": 19502,
  "uram": 26620,
  "\u2581recommendation": 11834,
  "\u2581camden": 12269,
  "brand": 22546,
  "\u0f58": 28970,
  "vao": 23684,
  "\u2581accessible": 6803,
  "\u2581\u767d": 918,
  "\u2581blonde": 8083,
  "\u25811986": 2071,
  "\u05d3": 28793,
  "\u2581rather": 1740,
  "\u2581muriel": 26618,
  "\u2581expressive": 21572,
  "\u2581\u0629": 275,
  "\u02b0": 28708,
  "\u2581\u7fa9": 939,
  "\u2581futsal": 20923,
  "\u2581\uff0c": 992,
  "\u2581outfits": 21056,
  "\u2581yellowish": 16806,
  "\u2581infinite": 9711,
  "\u2581lexi": 15107,
  "\u2581luna": 11911,
  "\u2581pendant": 22154,
  "\u2581carpets": 26999,
  "\u2581hr": 16852,
  "\u2581created": 1582,
  "\u2581blaming": 23116,
  "\u2581scheduled": 4117,
  "\u2581songs": 1776,
  "\u2581students": 1495,
  "\u2581af": 20360,
  "\u2581stared": 2594,
  "\u2581yahoo": 19645,
  "\u2581hair": 1608,
  "\u2581gem": 16072,
  "\u2581sheds": 25001,
  "\u2581\u1d50": 505,
  "heim": 7051,
  "\u2581shakespeare": 7103,
  "ku": 4285,
  "\u2581atv": 28110,
  "\u2581221": 18596,
  "vir": 20665,
  "\u2581\u1175": 486,
  "\u2581artery": 15751,
  "\u2581xander": 28021,
  "\u2581districts": 3735,
  "\u2581aces": 19234,
  "\u2581debuting": 23471,
  "tees": 27315,
  "\u2581wilbur": 25153,
  "\u2581booked": 16416,
  "dates": 26124,
  "\u2581181": 17598,
  "\u2581\u092e": 334,
  "\u2581meaning": 2576,
  "\u2581lifeboat": 22452,
  "\u300c": 29169,
  "gist": 23065,
  "\u2581branching": 22348,
  "\u2581dealer": 10035,
  "\u2581macarthur": 16721,
  "ume": 16899,
  "\u2581optimistic": 20933,
  "\u2581networking": 13050,
  "\u2581grouping": 18767,
  "\u2581bertie": 19745,
  "\u2581flute": 7930,
  "\u2581salty": 22594,
  "\u2581resign": 11899,
  "\u2581aug": 14478,
  "\u2581elector": 19376,
  "\u2581legislators": 21682,
  "\u2581busted": 22144,
  "\u2581reintroduced": 27265,
  "\u2581struggling": 7086,
  "\u2581curled": 7190,
  "\u2581cruz": 7098,
  "\u25811932": 3675,
  "\u2581ramos": 17884,
  "cite": 16849,
  "\u2581pen": 6281,
  "\u2581bumps": 17550,
  "\u2581catastrophe": 24541,
  "\u2581cradle": 17295,
  "\u2581peel": 13115,
  "\u2581raja": 9166,
  "\u2581leary": 21988,
  "overs": 23304,
  "\u2581shawn": 12220,
  "\u2581preserves": 17538,
  "\u2581dominates": 28534,
  "nce": 4899,
  "\u2581centenary": 16707,
  "\u2581oneself": 24765,
  "\u2581refers": 4220,
  "\u2581spicy": 24484,
  "\u258161": 5081,
  "jah": 17880,
  "\u2581witch": 5967,
  "\u2581kills": 7565,
  "\u2581relies": 15805,
  "\u2581exhaust": 14097,
  "powering": 22950,
  "\u2581swirling": 15501,
  "\u25811885": 5573,
  "\u2581zionist": 20381,
  "\u2581bam": 24309,
  "\u25811751": 23442,
  "lete": 24892,
  "ifer": 22782,
  "\u2581crafted": 18277,
  "\u2581kettle": 21423,
  "\u2581krakow": 13578,
  "\u2581lambda": 22377,
  "\u2581preparing": 7227,
  "ison": 9931,
  "\u2581\u1100": 458,
  "\u2581h": 47,
  "\u2581318": 26005,
  "\u2581assemble": 20367,
  "\u2581gujarat": 13290,
  "\u2581due": 1351,
  "\u2581serie": 7670,
  "\u2581widen": 20257,
  "\u2581nrhp": 21426,
  "\u2581clips": 14283,
  "\u2581proposes": 16148,
  "mise": 27734,
  "\u2581indifference": 24922,
  "\u3001": 29163,
  "\u2581plymouth": 9223,
  "\u2581huge": 3123,
  "\u2581\u4e09": 744,
  "\u258110": 1186,
  "\u2581sweetly": 21559,
  "\u2581rainbow": 9100,
  "\u2581belief": 5774,
  "\u2581lavender": 19922,
  "\u0447": 28754,
  "\u2581convince": 7056,
  "\u2581finland": 5437,
  "wled": 27367,
  "\u2581blazing": 16164,
  "\u2581inches": 4284,
  "\u2581suzanne": 14148,
  "\u2581lyricist": 18491,
  "\u2581movies": 4693,
  "\u2581conceptual": 16160,
  "\u2581hans": 6005,
  "\u2581pretend": 8813,
  "\u2581spices": 20731,
  "biotic": 25593,
  "\u2581amazon": 8735,
  "\u2581diplomacy": 16612,
  "\u2581dil": 28456,
  "\u2581ensuring": 11727,
  "\u2581labyrinth": 23241,
  "\u2581crops": 7767,
  "\u2581licenses": 14945,
  "\u2581folded": 6001,
  "ylus": 17873,
  "\u2581aligned": 12117,
  "rmi": 27552,
  "\u2581matilda": 16983,
  "\u2581dotted": 19386,
  "\u2581ambiguity": 26639,
  "\u2581\u533a": 785,
  "\u2581primarily": 2954,
  "\u2581neat": 14710,
  "\u2581snail": 9881,
  "\u2581rumor": 18077,
  "\u2581mitch": 10859,
  "\u2581husband": 2131,
  "ricting": 27829,
  "\u25811778": 15333,
  "\u2581higgins": 12468,
  "\u2581healthy": 6967,
  "\u2581text": 2795,
  "\u2581centimeters": 17121,
  "\u2581physics": 4586,
  "\u2581weather": 3635,
  "\u2581bowen": 15210,
  "jian": 26687,
  "\u2581synchronized": 24551,
  "\u2581mister": 11527,
  "\u2581mccartney": 14322,
  "\u2581mayors": 20943,
  "\u2581imply": 18517,
  "\u2581travelled": 6839,
  "bba": 21416,
  "\u2581\u307b": 679,
  "\u2581qualify": 6517,
  "ess": 6973,
  "\u2581euroleague": 25095,
  "\u2581preliminary": 7826,
  "eration": 15756,
  "tique": 27439,
  "\u2581ab": 10115,
  "\u2581drowning": 13761,
  "\u2581fuel": 3764,
  "\u2581regulatory": 9740,
  "\u2581oblique": 19660,
  "cian": 13485,
  "\u2581battles": 6467,
  "\u2581friedman": 17488,
  "\u2581torpedo": 8864,
  "\u2581divine": 6748,
  "stan": 11695,
  "\u2581abduction": 22417,
  "\u2581involuntary": 25099,
  "\u2581olympics": 2785,
  "\u2581metz": 23426,
  "\u2581apprenticeship": 19450,
  "\u2581community": 1453,
  "\u2581circuits": 12784,
  "\u2581\u5b80": 821,
  "\u2581genetically": 18347,
  "yala": 27619,
  "\u2581luton": 16809,
  "\u2581clock": 4121,
  "\u2581emphasizing": 21673,
  "\u2581banging": 21257,
  "\u2581\u2297": 616,
  "tically": 24086,
  "wa": 3215,
  "\u2581limitation": 21720,
  "tium": 15400,
  "\u2581sprinted": 24158,
  "ets": 7456,
  "iest": 9460,
  "\u2581sheffield": 7535,
  "\u2581theory": 2401,
  "\u2581logic": 6963,
  "\u2581brest": 21453,
  "\u2581united": 1144,
  "\u2581awful": 8645,
  "\u2581entrusted": 17013,
  "\u5343": 29312,
  "\u2581duluth": 27220,
  "\u25813a": 22844,
  "\u2581warp": 23138,
  "\u258156": 4181,
  "\u2581tailed": 13580,
  "\u2581bounds": 18204,
  "\u2581queen": 2037,
  "\u2581defective": 27831,
  "\u2581blasts": 24831,
  "\u2581sang": 5371,
  "\u2581restaurant": 3827,
  "\u2581groceries": 25300,
  "\u2581adjustable": 25406,
  "\u2581\u0452": 214,
  "\u2193": 29116,
  "space": 22060,
  "\u2581information": 1594,
  "\u2581malcolm": 7863,
  "\u25811896": 5308,
  "\u2581cooperative": 9793,
  "\u2581servicemen": 25716,
  "\u2581columbian": 24884,
  "\u2581lucia": 11339,
  "\u2581meters": 4565,
  "\u2581relations": 3264,
  "\u2581spire": 18825,
  "\u2581vowel": 11712,
  "\u2581mutiny": 18308,
  "\u2581660": 19984,
  "\u2581toronto": 3363,
  "\u2581moi": 24177,
  "\u2581sanitary": 24482,
  "\u258112th": 4942,
  "\u2581variant": 7351,
  "thi": 14224,
  "\u2581reggie": 16965,
  "\u2581admire": 18839,
  "\u2581affiliated": 5991,
  "iface": 28166,
  "\u2581oversees": 21560,
  "\u2581sd": 16373,
  "\u258119": 1541,
  "tted": 15192,
  "\u2581mhz": 10415,
  "-": 28626,
  "\u2581fortress": 6843,
  "\u2581rio": 4675,
  "zed": 4424,
  "\u2581mavericks": 27332,
  "\u258120th": 2985,
  "\u258150": 1755,
  "\u2581guilty": 4907,
  "adan": 25337,
  "\u2581barre": 22191,
  "\u2581astro": 27627,
  "\u067e": 28841,
  "ima": 8583,
  "\u2581contiguous": 24179,
  "dus": 16621,
  "\u2581tax": 3173,
  "\u2581marathon": 7591,
  "\u2581videos": 5878,
  "\u2581lobes": 23425,
  "\u2581steppe": 28098,
  "ocks": 24386,
  "\u2581maverick": 26189,
  "genic": 15507,
  "\u2581uncovered": 13488,
  "tro": 12183,
  "\u2581norms": 16608,
  "pha": 20892,
  "\u2581glamour": 21441,
  "\u2581hear": 1965,
  "\u2581cheshire": 12791,
  "\u2581apparent": 5837,
  "\u2581monmouth": 19435,
  "\u2581straits": 17851,
  "\u2581spiked": 24364,
  "\u2581\u99ac": 983,
  "\u2581helps": 6128,
  "\u2581framing": 19243,
  "\u2581penned": 16432,
  "\u2581peck": 17084,
  "\u2581nowhere": 6882,
  "\u2581cords": 23553,
  "65": 25189,
  "\u2581pills": 14347,
  "\u2581individual": 2267,
  "uled": 17698,
  "\u2581barrow": 14357,
  "\u2581subway": 9800,
  "\u2581coping": 26522,
  "\u2581jd": 25221,
  "kai": 10153,
  "\u2581communists": 12011,
  "\u2581pioneering": 12282,
  "\u2581\u10d1": 442,
  "\u2581sq": 4492,
  "date": 12703,
  "\u2581grief": 8942,
  "\u2581skulls": 20544,
  "\u2581shaft": 8095,
  "\u2581jen": 14421,
  "\u2581insurgency": 22941,
  "\u2581jurisdictions": 16372,
  "\u2581\u0569": 227,
  "\u2581dense": 8744,
  "\u2581barrel": 7462,
  "\u2581scrub": 17159,
  "\u2581accessory": 24341,
  "\u2581register": 3238,
  "zee": 22942,
  "\u2581root": 6119,
  "\u2581lectures": 7923,
  "\u2581lamb": 11561,
  "\u25811992": 1828,
  "\u2581euclidean": 24828,
  "\u2581scores": 6646,
  "kic": 28495,
  "\u2581advanced": 2937,
  "\u2581foothills": 17457,
  "\u2581warped": 24620,
  "\u2581chaired": 11284,
  "\u2581bloom": 12428,
  "\u2581bal": 27354,
  "\u2581racers": 24793,
  "\u2581singing": 3825,
  "\u2581willem": 17813,
  "\u2581\u10e3": 457,
  "\u2581unseen": 15102,
  "\u028b": 28701,
  "chus": 15196,
  "\u2581electronically": 27928,
  "\u2581dusty": 11729,
  "\u2581shortest": 19049,
  "\u2581victoria": 2850,
  "\u2581archbishop": 5509,
  "\u2581opt": 22571,
  "\u258113": 1412,
  "\u2581slow": 3032,
  "\u2581dates": 4248,
  "rdan": 25994,
  "\u2581embarrassment": 13327,
  "\u2581miles": 1663,
  "ista": 10923,
  "kot": 22344,
  "\u2581erased": 22518,
  "\u2581quicker": 18061,
  "\u2581icon": 11698,
  "\u2581einstein": 14315,
  "nail": 24466,
  "\u2581jane": 3871,
  "\u2581nationally": 8584,
  "\u2581former": 1282,
  "koff": 25128,
  "vant": 17943,
  "\u2581simplicity": 16841,
  "\u2581staring": 3584,
  "\u2581rosy": 25853,
  "\u2581fortification": 22052,
  "\u2581tatar": 28243,
  "\u2581cai": 28082,
  "\u2581selangor": 27906,
  "\u2581estonia": 9694,
  "\u2581weiss": 16891,
  "\u2581revue": 16482,
  "\u2581leak": 16273,
  "\u2581reaching": 3287,
  "\u2581modifications": 11721,
  "ssi": 17721,
  "\u2581jon": 5287,
  "llins": 25657,
  "gam": 21866,
  "\u2581sudanese": 24605,
  "\u2581\u5d0e": 837,
  "\u2581powerless": 24194,
  "\u2581simplest": 20306,
  "\u2581householder": 6538,
  "\u2581kappa": 15002,
  "\u2581map": 3951,
  "\u2581romney": 18617,
  "\u2581avail": 23610,
  "\u2581sorting": 21212,
  "aring": 21399,
  "\u2581gale": 13556,
  "\u2581trafficking": 10628,
  "\u2581psychological": 7319,
  "\u2581tents": 16734,
  "\u2581kirby": 14131,
  "\u2581southernmost": 20789,
  "\u25811968": 2382,
  "\u2581link": 3959,
  "\u2581perkins": 12603,
  "\u2581salary": 9302,
  "ying": 13149,
  "\u2581confinement": 20553,
  "\u2581darted": 13053,
  "\u2581nam": 14127,
  "\u2581baja": 18499,
  "\u2581accustomed": 16732,
  "\u2581muddy": 14407,
  "\u2581newscast": 19308,
  "\u2581coordinating": 18797,
  "\u2581fearing": 13894,
  "nies": 14582,
  "\u9673": 29500,
  "\u2581shower": 5459,
  "\u2581sir": 1911,
  "\u2581betrayal": 13585,
  "\u25811964": 2548,
  "rrick": 24001,
  "\u2581gamble": 17505,
  "dier": 23614,
  "\u258104": 4842,
  "\u2581directorate": 12636,
  "\u2581glazed": 18726,
  "\u2581\u4ebb": 760,
  "lary": 27223,
  "\u2581lila": 18288,
  "llin": 20204,
  "\u2581tally": 18554,
  "\u2581transcription": 13195,
  "cle": 13323,
  "\u2581kari": 26358,
  "\u2581hawaiian": 11190,
  "\u2581gnome": 24783,
  "\u2581rhea": 23777,
  "\u2581park": 1382,
  "\u2581quartermaster": 23690,
  "\u2581\u2018": 523,
  "\u2581onboard": 26122,
  "ida": 7526,
  "\u2581continuously": 9845,
  "\u2581insane": 8579,
  "\u2581stellar": 16229,
  "\u2581belonging": 6497,
  "crest": 24315,
  "\u2581renaming": 23946,
  "\u2581immortal": 11149,
  "\u2581fashionable": 18966,
  "^": 28639,
  "\u2581scenario": 10969,
  "\u2581doll": 9660,
  "\u2581dreaming": 11804,
  "\u2581milwaukee": 8186,
  "\u2581track": 1652,
  "he": 4371,
  "\u2581spring": 2502,
  "\u2206": 29124,
  "\u2581meritorious": 21055,
  "storm": 18720,
  "ction": 6544,
  "\u2581emotional": 5834,
  "\u2581commemoration": 21379,
  "\u2581dead": 1759,
  "\u2581requiring": 8036,
  "\u2581casino": 8272,
  "\u2581analysts": 17290,
  "\u2581discs": 14305,
  "\u2581vent": 17836,
  "\u2581cover": 2106,
  "\u2581evacuate": 21813,
  "\u2581patty": 16800,
  "s": 1018,
  "\u2581southport": 26496,
  "\u2581antibody": 26783,
  "\u25812011": 1251,
  "\u2581positioned": 9961,
  "\u2581thoroughly": 11248,
  "gle": 8356,
  "\u2581possess": 9297,
  "\u2581remaining": 2590,
  "\u2581testified": 13916,
  "\u2581fork": 8294,
  "\u2581represents": 4838,
  "onda": 28069,
  "\u2581trainers": 20994,
  "\u2581imam": 16191,
  "\u2581eager": 8463,
  "\u25811788": 14624,
  "\u2581\u3048": 652,
  "\u2581killing": 3290,
  "tenberg": 20808,
  "\u2581outlined": 13803,
  "\u2581girl": 1613,
  "dust": 23222,
  "\u2581vito": 24552,
  "\u25811934": 3581,
  "\u2581selma": 27114,
  "\u2581constituencies": 12317,
  "\u2581tatiana": 21727,
  "dict": 28203,
  "\u2581minerva": 26385,
  "\u2581hudson": 5844,
  "centric": 21463,
  "\u2581used": 1112,
  "\u2581mania": 28312,
  "grave": 11832,
  "\u2581taxonomy": 24276,
  "esian": 24255,
  "\u2581\u2014": 520,
  "\u2581cluster": 8326,
  "lis": 5858,
  "ces": 8625,
  "\u2581predominantly": 8199,
  "\u2581fraud": 8863,
  "\u2581morrow": 18086,
  "\u2581responds": 15414,
  "\u2581seasonal": 11350,
  "\u2581quarrel": 25262,
  "\u2581fable": 27460,
  "\u2581incorrectly": 18723,
  "\u2581wire": 6320,
  "drome": 28173,
  "\u2581seaman": 20628,
  "\u2581potassium": 17046,
  "45": 18963,
  "\u2581arson": 23914,
  "\u028e": 28703,
  "tv": 8191,
  "\u2581mexico": 2292,
  "\u2581tbilisi": 21408,
  "\u258198": 4820,
  "\u2581stalked": 14860,
  "\u2581bounced": 12607,
  "\u0575": 28779,
  "\u2581stunts": 27467,
  "\u2581winger": 15074,
  "\u2581answered": 3662,
  "\u2581jump": 4378,
  "\u2581pods": 25725,
  "\u2581societal": 22384,
  "\u2581parachute": 12563,
  "\u2581reflects": 10140,
  "\u2581compares": 21965,
  "\u2581coated": 14028,
  "\u2581sanjay": 28592,
  "\u2581tenderly": 25598,
  "\u2581career": 1478,
  "\u2581investigating": 10540,
  "\u2581joachim": 16288,
  "\u2581blown": 9678,
  "\u2581\u308b": 690,
  "\u2581unusually": 11892,
  "\u2581winslow": 25602,
  "\u2581wrestlers": 13041,
  "tila": 25067,
  "\u2581alternate": 5587,
  "\u2581bedford": 11005,
  "\u2581unison": 17734,
  "\u2581struggle": 5000,
  "\u2581coast": 2025,
  "\u2581southeast": 3645,
  "\u2581deposits": 9044,
  "\u2581anchors": 23676,
  "\u2581zurich": 9206,
  "\u2581venezuela": 7328,
  "\u2581quarterfinal": 28382,
  "\u2581\u3042": 649,
  "\u2581gt": 13183,
  "\u2581530": 22525,
  "\u2581conceal": 18821,
  "\u2581bmg": 23501,
  "\u2581motorsports": 19713,
  "\u2581proximity": 9041,
  "\u2581seychelles": 26440,
  "\u2581lockheed": 16648,
  "\u2581\u3053": 658,
  "\u2581deserts": 27860,
  "\u2581handkerchief": 22977,
  "ogy": 14709,
  "\u2581cfl": 17832,
  "\u2282": 29139,
  "\u2581\u5bb6": 828,
  "\u2581contributed": 4203,
  "\u2581forecast": 18941,
  "\u2581dewey": 19311,
  "\u25811660": 16956,
  "\u2581pagan": 13320,
  "\u09ac": 28906,
  "pired": 20651,
  "\u2581gotten": 4409,
  "\u2581amy": 5866,
  "\u2581wil": 18865,
  "\u2581constantin": 26993,
  "\u2581romance": 6474,
  "\u2581huffington": 25151,
  "\u2581slate": 11798,
  "\u2581resided": 11429,
  "\u2581smackdown": 21122,
  "\u2581470": 20066,
  "\u2581bottle": 4837,
  "\u2581\u0e23": 420,
  "\u2581;": 28,
  "\u2581st": 1360,
  "over": 6842,
  "hel": 15003,
  "\u2581\u1d35": 496,
  "\u2581retreated": 10674,
  "\u2581rum": 18381,
  "\u2581competitions": 5481,
  "\u2581contamination": 17703,
  "\u2581legacy": 7029,
  "\u0679": 28840,
  "\u2581howe": 12360,
  "\u2581\u05e0": 260,
  "\u2581snapping": 14792,
  "\u2581nicola": 16390,
  "\u2581toni": 15527,
  "\u2581formation": 3197,
  "rix": 16684,
  "\u2581summon": 17656,
  "\u2581preventing": 9725,
  "\u2581edwards": 6382,
  "\u2581marxist": 14513,
  "\u306b": 29196,
  "\u2581telecom": 17128,
  "\u2581grossed": 16502,
  "\u2581says": 1760,
  "\u2581rejoin": 24263,
  "\u2581citrus": 19420,
  "\u2581we": 1060,
  "\u2581biotechnology": 19355,
  "truct": 17302,
  "\u2581biscuits": 26531,
  "odon": 27718,
  "\u2581roman": 2144,
  "mb": 13907,
  "\u2581engage": 7528,
  "ayo": 27854,
  "\u2581hepburn": 21006,
  "\u2081": 10873,
  "\u2581kilometres": 2719,
  "\u2581hotspur": 24987,
  "\u2581turkey": 3979,
  "omo": 18508,
  "\u2581homosexuality": 14951,
  "onzo": 28454,
  "\u2581spray": 11511,
  "\u2581patio": 18406,
  "\u2581onslaught": 27646,
  "\u2581pirate": 10306,
  "vier": 13358,
  "\u2581historian": 4274,
  "\u2581offering": 4380,
  "\u2581force": 1488,
  "\u2581adopt": 10094,
  "\u2581bombardier": 28145,
  "gaon": 26075,
  "\u2581linguist": 21980,
  "oj": 28149,
  "\u2581farrell": 15250,
  "\u2581surfaces": 8974,
  "\u2581ipa": 23533,
  "\u2581folly": 25274,
  "\u2581gaius": 18566,
  "\u2581safari": 22593,
  "\u2581magnolia": 23661,
  "\u2581harriet": 13209,
  "\u2581287": 22092,
  "\u2581competes": 13192,
  "\u2581freshman": 9454,
  "fly": 13153,
  "\u2581health": 1742,
  "\u2581payment": 6911,
  "\u2581enthusiasts": 19307,
  "\u2581meanwhile": 4566,
  "\u2581uploaded": 20347,
  "\u2581amino": 12098,
  "\u2581inspiration": 6782,
  "\u2581riff": 23810,
  "\u2581croatia": 7099,
  "\u2581jared": 7336,
  "\u2581\u91ce": 966,
  "\u2581butch": 16522,
  "\u2581mill": 3973,
  "\u2581nothin": 23220,
  "\u2581methane": 23483,
  "\u2581em": 6863,
  "\u2581purity": 17435,
  "\u2581shocks": 27217,
  "\u2581talent": 4850,
  "\u2581economical": 20793,
  "\u2581textiles": 17764,
  "\u2581gunshot": 21079,
  "\u2581tables": 6253,
  "\u2581cuba": 6396,
  "\u25811643": 24536,
  "\u2581pune": 15922,
  "\u2581attain": 17761,
  "\u2581bishops": 7416,
  "\u2581belongs": 6462,
  "\u2581900": 6708,
  "\u09b9": 28915,
  "\u2581rye": 19928,
  "\u2581arcs": 28139,
  "\u2581les": 3651,
  "\u2581footed": 27858,
  "urn": 13289,
  "\u2581fin": 9348,
  "\u2581rovers": 8821,
  "\u2581couldn": 1483,
  "\u2581instructors": 18924,
  "\u2581cessna": 26666,
  "\u2581fitch": 25064,
  "\u2581amid": 12465,
  "race": 21905,
  "\u2581request": 4229,
  "\u2581\u0940": 345,
  "\u2581stolen": 6378,
  "\u2581deep": 1786,
  "\u2581lancaster": 9239,
  "\u2581screenwriter": 10169,
  "\u2581detective": 5319,
  "\u2581ives": 22947,
  "\u2581dario": 25802,
  "nted": 13708,
  "\u2581scarlett": 19864,
  "\u2581prevalence": 19274,
  "\u2581specialist": 7327,
  "\u2581uninhabited": 23751,
  "\u2581ankles": 14394,
  "\u2581awareness": 6075,
  "\u2581survival": 6693,
  "\u2581pasadena": 17882,
  "\u2581cello": 9147,
  "\u2581dunedin": 21022,
  "bm": 24528,
  "\u2581carousel": 26630,
  "rba": 27485,
  "\u2581advances": 8851,
  "\u2581win": 1665,
  "\u2581buffet": 27307,
  "\u2581mayer": 13689,
  "\u2581barnett": 19075,
  "\u2581clown": 14914,
  "\u2581duff": 20021,
  "tag": 14902,
  "\u2581clans": 15413,
  "\u2581swaying": 20828,
  "\u2581prematurely": 27181,
  "\u2581gabby": 26185,
  "\u2581instruction": 6901,
  "\u2581mortal": 8803,
  "camp": 25470,
  "\u2581crunch": 23516,
  "ntial": 18911,
  "\u2581equator": 25642,
  "\u2581analogous": 18641,
  "era": 5908,
  "\u2581consular": 26328,
  "\u2581photographer": 7090,
  "\u2581terrified": 9217,
  "\u2581appear": 2713,
  "\u2581noticing": 14105,
  "\u2581\u0268": 121,
  "\u2581marc": 6873,
  "\u2581objected": 14961,
  "\u2581foam": 16954,
  "\u2581firm": 2815,
  "\u2581flirting": 19663,
  "\u2581mater": 15291,
  "\u2581eurasian": 22401,
  "\u2581appeared": 1598,
  "\u2581red": 1419,
  "\u0bb2": 28930,
  "\u2581\u2606": 624,
  "\u2581confidential": 17779,
  "\u2581cot": 25048,
  "\u2581\u7acb": 934,
  "\u2581mildly": 18501,
  "\u207b": 29081,
  "\u2581440": 16424,
  "\u2581portion": 3666,
  "\u2581274": 24588,
  "\u2581in": 1002,
  "\u2581reviews": 3393,
  "\u2581hardness": 22610,
  "\u2581brighter": 15178,
  "\u30fc": 29267,
  "lander": 21693,
  "\u2581calculus": 18278,
  "athy": 16310,
  "\u2581pr": 9977,
  "\u2581\u0442": 200,
  "\u2581xiv": 14941,
  "\u2581angel": 3852,
  "\u2581clean": 3552,
  "dler": 20224,
  "\u2581commodities": 20957,
  "\u2581ata": 28535,
  "\u2581\u3051": 657,
  "\u2581ruiz": 17775,
  "\u5fb7": 29376,
  "\u2581fungi": 14291,
  "\u2581flashlight": 14259,
  "\u2581simmons": 12674,
  "\u2581acquiring": 12870,
  "\u2581horned": 25810,
  "\u2581discussed": 5938,
  "\u2581vikings": 12470,
  "\u2581dept": 28468,
  "\u2581jonah": 14619,
  "\u2581darkened": 12757,
  "\u2581georgetown": 11984,
  "\u2581knotted": 26041,
  "\u2581breathing": 4507,
  "\u5730": 29330,
  "\u2581sterile": 24405,
  "\u2581arenas": 25436,
  "\u2581\u702c": 908,
  "athing": 21316,
  "km": 21289,
  "\u2581lighting": 6499,
  "\u30a1": 29220,
  "\u2581sizable": 24910,
  "\u2581assaults": 21666,
  "\u2581derry": 16457,
  "\u2581worse": 3790,
  "\u2581rippled": 25864,
  "\u2581frames": 10050,
  "ructured": 25136,
  "\u2581sf": 15422,
  "sworth": 11257,
  "\u2581hum": 13912,
  "lewood": 25582,
  "\u2581gaunt": 26536,
  "\u2581hearth": 21887,
  "\u2581tehran": 12505,
  "\u2581zev": 26911,
  "elman": 22832,
  "\u2581goddess": 6806,
  "\u2581compass": 15683,
  "\u2581view": 2195,
  "\u2581amara": 27601,
  "zar": 8059,
  "\u2581chorus": 6167,
  "\u2581proud": 6100,
  "\u2581alps": 12700,
  "ol": 3749,
  "\u2581curtiss": 25433,
  "\u2581equatorial": 20335,
  "\u2581revered": 22888,
  "\u2581shaggy": 24743,
  "\u2581barangay": 19939,
  "\u2581ejected": 21609,
  "\u2581cornelius": 16356,
  "\u2581sells": 14189,
  "\u2581competitor": 11694,
  "\u2581acquaintance": 17365,
  "\u2581utilities": 15550,
  "board": 5279,
  "\u2581tempered": 21150,
  "\u056c": 28775,
  "\u2581ferguson": 10264,
  "\u2581carmen": 10427,
  "\u2581crucial": 9234,
  "it": 3185,
  "\u2581\u4f0a": 765,
  "nism": 27115,
  "\u2581[": 34,
  "\u2581culinary": 19562,
  "pon": 25031,
  "\u2581ranges": 7485,
  "\u2581\u30ad": 704,
  "vie": 12471,
  "\u258155": 3585,
  "\u2581mildred": 24454,
  "uit": 13665,
  "\u25811773": 18918,
  "\u2581cafeteria": 15675,
  "gai": 22807,
  "\u2581dot": 10091,
  "\u2581helmet": 9414,
  "station": 19102,
  "ege": 23748,
  "\u2581whales": 16969,
  "\u2581orleans": 4981,
  "\u2581election": 1604,
  "\u2581retiring": 8152,
  "\u2581mantra": 24953,
  "\u2581establishing": 6413,
  "minating": 26934,
  "\u2581gothenburg": 21838,
  "\u2581parties": 3245,
  "\u2581ceded": 18707,
  "\u2581burnham": 24297,
  "ulf": 20009,
  "\u2581glitter": 26568,
  "olf": 27029,
  "\u2581necessary": 3074,
  "\u2581\u099b": 360,
  "\u2581\u301c": 648,
  "filtration": 27676,
  "\u2581fair": 3191,
  "\u2581intervened": 20118,
  "\u2581credentials": 21498,
  "\u2581breathed": 7728,
  "lassified": 23940,
  "ssion": 27233,
  "\u2581dip": 15512,
  "\u2581\u308a": 689,
  "\u2581npr": 20413,
  "am": 2288,
  "\u2581wines": 13748,
  "tem": 17534,
  "\u2581result": 1767,
  "\u2581riders": 7197,
  "\u2581katie": 8736,
  "\u2581pasta": 23859,
  "\u2581wept": 23968,
  "\u2581lennox": 20062,
  "\u2581puck": 21902,
  "\u2033": 29069,
  "\u2581lucien": 10734,
  "\u2581acid": 4650,
  "\u2581fide": 25002,
  "fires": 25334,
  "\u2581alternatively": 13086,
  "\u2581eruption": 16261,
  "\u2581hooper": 22719,
  "\u2581concluding": 15230,
  "rogate": 20801,
  "\u2581oversight": 14711,
  "lei": 22059,
  "\u2581personalities": 11859,
  "\u2581maps": 6343,
  "\u2581discovery": 4458,
  "\u2581archery": 20385,
  "\u2581315": 21906,
  "\u30d5": 29248,
  "\u2581serial": 6644,
  "\u2581cores": 24564,
  "\u2581joints": 16653,
  "\u2581{": 66,
  "\u2581neville": 13873,
  "\u2581223": 19804,
  "\u2581interpreted": 9011,
  "\u2581recounts": 22414,
  "play": 12070,
  "\u2581grape": 13724,
  "\u2581arun": 27219,
  "\u2581very": 1202,
  "\"": 28615,
  "\u2581tracing": 15909,
  "\u2581faith": 3754,
  "\u2581lacrosse": 12490,
  "sume": 22547,
  "rret": 26034,
  "\u2581looting": 28369,
  "\u2581dangling": 17739,
  "\u2581dreamer": 23728,
  "\u2581installed": 4363,
  "\u2581tattoo": 10662,
  "\u2581provoked": 18159,
  "\u2581continuum": 21963,
  "\u2581trumpet": 8370,
  "\u2581stronghold": 15997,
  "\u2581tobago": 16249,
  "\u2581marking": 9062,
  "\u25811670": 25255,
  "position": 25996,
  "\u2581inaccessible": 28106,
  "\u2581stefano": 18620,
  "\u2581\u661f": 869,
  "\u2581brutal": 11079,
  "boys": 23918,
  "\u2581capitalist": 18642,
  "\u258152": 3722,
  "\u2581*": 11,
  "\u2581aj": 18130,
  "ul": 4315,
  "\u2581mosques": 20924,
  "\u2581aforementioned": 16291,
  "\u2581shrub": 14753,
  "\u2581podium": 13504,
  "loid": 26712,
  "\u2581meeting": 2118,
  "lateral": 27279,
  "\u2581proponent": 21490,
  "\u2581jerry": 5130,
  "\u2581manuscript": 7358,
  "sov": 22232,
  "\u2581cash": 4358,
  "\u2581nowadays": 12369,
  "\u2581puppet": 12999,
  "\u2581kali": 18926,
  "\u2581bryant": 11473,
  "\u2581literally": 5721,
  "\u2581pixel": 21140,
  "iente": 24101,
  "\u2581fractures": 27931,
  "\u2581ld": 24512,
  "\u2581watch": 2424,
  "\u2581sovereign": 10076,
  "\u2581net": 4660,
  "\u2581bullet": 6962,
  "nare": 25150,
  "\u2581engagement": 7149,
  "\u2079": 29080,
  "\u2581dealing": 6151,
  "\u2581identifiable": 26802,
  "\u2581stuart": 5992,
  "\u2581pronounced": 7795,
  "\u2581colossal": 28525,
  "\u2581drifting": 14015,
  "\u2581amongst": 4923,
  "\u2581kaye": 22688,
  "mi": 3330,
  "arians": 27371,
  "rde": 24549,
  "\u2581buried": 2952,
  "\u2581missed": 3773,
  "pathy": 19168,
  "cin": 14461,
  "\u2581boiler": 14637,
  "\u2581teaming": 26027,
  "\u2581wandered": 12291,
  "\u2581lauren": 9296,
  "\u2581corpses": 17115,
  "\u2581elaborated": 24189,
  "\u2581gunnery": 26921,
  "\u5929": 29339,
  "\u2581intense": 5389,
  "\u2581crowns": 23366,
  "\u2581anal": 19304,
  "ulio": 23827,
  "\u2581provide": 2075,
  "\u2581cynical": 25883,
  "\u2581nasty": 10810,
  "\u2581enrichment": 26228,
  "\u2581bottoms": 23198,
  "\u2087": 29085,
  "ticus": 28589,
  "rden": 17248,
  "mins": 20268,
  "\u2581inflation": 13202,
  "\u2581autumn": 6116,
  "\u2581plight": 23527,
  "\u2581twisted": 5391,
  "\u2581emperor": 2752,
  "\u2581segregated": 23384,
  "\u1d30": 29030,
  "\u2581dod": 25491,
  "\u2581phillies": 14713,
  "\u2581trivial": 19612,
  "\u2581cody": 12328,
  "\u2581ferdinand": 8686,
  "\u2581266": 24164,
  "\u2581jae": 21772,
  "\u2581picks": 10216,
  "\u2581cop": 7874,
  "\u2581mischievous": 24725,
  "\u2581austro": 15953,
  "\u2581longing": 14754,
  "\u2581finish": 2928,
  "turing": 15039,
  "\u2581neil": 5608,
  "hun": 16159,
  "\u2581bash": 23236,
  "\u2c7c": 29159,
  "icio": 26115,
  "\u2581circuit": 3986,
  "\u2581finals": 3401,
  "\u2581export": 8169,
  "kulam": 27873,
  "elial": 23589,
  "antes": 23987,
  "\u2581\u1106": 462,
  "\u2581studied": 2275,
  "\u25811629": 26884,
  "\u2581resolution": 4815,
  "\u2581evaluate": 15159,
  "\u2581woodlands": 18270,
  "\u2581kelsey": 20006,
  "\u2581silesian": 19455,
  "itated": 14200,
  "\u2581minimal": 9126,
  "\u2581textbook": 15434,
  "\u2581eagerly": 16860,
  "\u2581annabelle": 23724,
  "\u2581wisconsin": 4275,
  "\u2581\u6cbb": 903,
  "\u2581cops": 9560,
  "kra": 21274,
  "\u2581wong": 10791,
  "\u2581attached": 3989,
  "\u258145th": 23636,
  "\u2581interactive": 8125,
  "\u2581five": 1276,
  "duction": 15258,
  "\u2581callie": 19074,
  "\u2581poison": 8949,
  "\u2581populous": 19153,
  "\u2581westbound": 23719,
  "\u00df": 18312,
  "\u2581warden": 12747,
  "creen": 23412,
  "\u2581soundtrack": 5052,
  "\u2581conserve": 26751,
  "\u1d50": 29040,
  "\u2581verbal": 11066,
  "\u6708": 29400,
  "\u2581slalom": 18619,
  "\u2581seton": 27798,
  "\u2581team": 1138,
  "\u2581medicare": 26617,
  "lty": 23230,
  "\u2581unfinished": 13344,
  "\u2581nation": 2844,
  "\u2581pete": 5971,
  "onic": 11358,
  "ifies": 13146,
  "\u2581essex": 7864,
  "\u2581detained": 13622,
  "\u2581business": 1451,
  "\u2581creation": 3327,
  "\u2581\u300d": 645,
  "\u2581admiralty": 13181,
  "\u2581fences": 20551,
  "\u2581seeking": 5226,
  "\u2581scrambled": 12503,
  "gins": 15531,
  "\u2581paralysis": 25289,
  "aka": 10907,
  "\u2581cavendish": 22572,
  "\u2581ravens": 16274,
  "\u2581bursts": 18241,
  "\u2581opinions": 9742,
  "\u2581room": 1284,
  "\u2581blows": 12785,
  "\u2581intercity": 19653,
  "\u2581gorilla": 22528,
  "\u2581franchises": 21508,
  "\u2581ghent": 23204,
  "ayan": 24870,
  "\u2581\u044a": 208,
  "lene": 10476,
  "\u2581arrogant": 14820,
  "\u2581destroy": 5035,
  "ded": 4734,
  "\u2581breaststroke": 27166,
  "\u2581long": 1148,
  "\u2581indefinitely": 19735,
  "eptive": 21050,
  "dad": 13699,
  "\u2581sleeping": 4779,
  "\u2581floyd": 11307,
  "\u2581bentley": 14990,
  "\u2581cried": 5641,
  "\u2581determining": 11517,
  "\u2581sense": 2170,
  "wald": 10193,
  "ik": 4482,
  "night": 14866,
  "\u2581khalid": 20830,
  "sque": 16731,
  "\u2581highlanders": 21674,
  "\u2581sanchez": 9570,
  "\u2581liu": 7609,
  "\u2581airing": 9501,
  "\u2581sprint": 8045,
  "\u2581explosion": 6740,
  "\u2581designed": 1883,
  "\u2581creaked": 27070,
  "\u2581sarah": 3534,
  "\u2581mechanics": 8762,
  "\u2581particularly": 2393,
  "\u2581350": 7700,
  "\u2581thank": 3069,
  "imum": 27593,
  "kian": 27547,
  "\u2581meter": 7318,
  "vres": 23792,
  "\u2581sebastian": 5419,
  "\u2581find": 1426,
  "\u0435": 14292,
  "\u2581script": 4898,
  "\u2581ricardo": 12561,
  "ben": 9611,
  "\u2581freely": 9352,
  "\u2581violence": 3810,
  "\u2581intently": 15172,
  "rer": 13546,
  "\u2581benin": 20166,
  "ya": 2150,
  "\u2581lectured": 18208,
  "\u2581happy": 2409,
  "\u2581chunks": 23841,
  "\u2581downstream": 12250,
  "\u2581cinderella": 20688,
  "\u2581lewis": 3574,
  "\u2581maternity": 22678,
  "\u2581ling": 16004,
  "\u258116th": 4769,
  "\u2581declared": 3163,
  "\u21d2": 29121,
  "\u2581notebook": 13962,
  "\u2581ancient": 2420,
  "\u2581grazed": 25629,
  "\u2581nanny": 18176,
  "\u2581successfully": 4149,
  "lita": 26608,
  "\u09b0": 28910,
  "\u2581fitted": 6132,
  "\u2581proudly": 17069,
  "\u2581graham": 4848,
  "\u25817th": 4506,
  "cture": 13892,
  "\u2581halt": 8192,
  "df": 19954,
  "oder": 26383,
  "\u2581till": 5231,
  "\u2581castes": 25256,
  "\u2581pronunciation": 14500,
  "\u2581browns": 12242,
  "\u2581shitty": 27545,
  "\u2581uneasy": 14493,
  "\u2581pneumonia": 17585,
  "\u2581materialized": 26077,
  "\u2581certification": 9620,
  "\u2581congenital": 26482,
  "\u2581\u0435": 188,
  "\u2581managers": 9491,
  "\u2581fireplace": 12790,
  "\u2581hereditary": 13802,
  "\u10e1": 28990,
  "\u2581southland": 28123,
  "\u2581tulane": 26439,
  "\u2581prologue": 17879,
  "ovo": 15061,
  "\u2581rainer": 27037,
  "\u2581bottled": 25073,
  "\u2581far": 1523,
  "\u2581277": 24580,
  "\u2581\u03c0": 173,
  "anger": 24123,
  "\u2581itv": 10860,
  "\u2581marred": 23565,
  "\u2581salon": 10092,
  "\u2581granting": 14082,
  "\u2581granada": 15555,
  "\u2581vacated": 14350,
  "\u2581stifled": 26148,
  "\u2581implementations": 23979,
  "\u2581push": 4247,
  "\u2581tumble": 27390,
  "\u2581espn": 9980,
  "\u25811869": 6847,
  "ats": 10151,
  "\u2581bald": 12854,
  "\u2581shifters": 20539,
  "\u0f51": 28966,
  "\u2581story": 1468,
  "\u2581shafts": 19544,
  "\u25811550": 25247,
  "\u2581cancellation": 15992,
  "\u2581goats": 16979,
  "\u2581trails": 8614,
  "\u2581gina": 16510,
  "\u2581es": 8688,
  "\u2581deco": 20935,
  "\u2581launches": 17991,
  "\u2581extensions": 13307,
  "elli": 12350,
  "\u2581organist": 15399,
  "\u2581weigh": 16044,
  "\u2581magician": 15671,
  "\u2581accounts": 5117,
  "olic": 22520,
  "gee": 17374,
  "\u2581shores": 12314,
  "zal": 15741,
  "\u2581mtv": 7694,
  "\u2581stays": 11239,
  "tify": 26353,
  "oris": 20241,
  "\u2581evan": 8342,
  "\u2581missile": 6423,
  "\u2581branched": 20650,
  "\u2581backbone": 20507,
  "\u2581atomic": 8595,
  "\u2581pierre": 4580,
  "\u2581continue": 2615,
  "\u2581\u0291": 140,
  "uring": 11230,
  "\u2581squirrel": 17199,
  "\u2581aramaic": 27936,
  "\u2581amplified": 25988,
  "\u2581fans": 3601,
  "icative": 24186,
  "ttle": 25330,
  "\u2581231": 19306,
  "\u2581viking": 11888,
  "mania": 26012,
  "\u2581bean": 13070,
  "\u3086": 29211,
  "38": 21027,
  "\u2581caution": 13048,
  "\u258187": 5586,
  "\u2581atmosphere": 6226,
  "\u2581vulnerability": 17132,
  "\u2581analytic": 22523,
  "iso": 18567,
  "\u2581\u5bbf": 829,
  "\u2581destroyers": 12244,
  "\u2581quan": 23112,
  "\u2581protector": 15169,
  "\u2581rumbled": 21259,
  "imate": 20501,
  "\u2581mortgage": 13346,
  "bc": 8820,
  "\u2581peng": 25475,
  "oss": 14096,
  "\u2581ferrara": 27637,
  "\u2581dynasty": 4323,
  "\u2581beatty": 26307,
  "\u2581690": 27068,
  "is": 1485,
  "\u2581dime": 26213,
  "kia": 20130,
  "\u2581benefactor": 26400,
  "\u2581donald": 5223,
  "\u2581\u09a1": 363,
  "\u2581conservatoire": 28235,
  "\u2581konstantin": 22991,
  "\u2581operation": 2171,
  "\u2581admiration": 16007,
  "tori": 28471,
  "\u2581erich": 16515,
  "\u2581charlemagne": 26259,
  "\u099f": 28897,
  "\u2581denounced": 16789,
  "\u2581supplies": 5069,
  "\u2581foundation": 2194,
  "\u2581quietly": 4170,
  "\u2581husbands": 18091,
  "\u2581\u0448": 206,
  "icate": 23697,
  "9th": 24662,
  "aries": 11088,
  "per": 3844,
  "\u2581with": 1010,
  "th": 1707,
  "\u2581universally": 20188,
  "\u2581lose": 3560,
  "rank": 25765,
  "\u2581memoirs": 12253,
  "\u2581admired": 11751,
  "helm": 23548,
  "\u2581outrageous": 24508,
  "\u2581sneakers": 27132,
  "istan": 22139,
  "\u2581attorneys": 15216,
  "sum": 16423,
  "\u2581peptide": 24119,
  "\u2581lea": 11205,
  "\u2581gemini": 20426,
  "nde": 12631,
  "\u2581funky": 23153,
  "\u2581libertadores": 26970,
  "\u2581balanced": 11044,
  "uch": 9877,
  "\u2581night": 1307,
  "mah": 24689,
  "\u2581lucifer": 23186,
  "\u2581\u1da0": 515,
  "\u2581possesses": 13884,
  "\u2581muscular": 12474,
  "\u2581therese": 24600,
  "\u2581darker": 8906,
  "emia": 16579,
  "\u2581surprised": 3529,
  "ographic": 12707,
  "\u2581wondered": 4001,
  "\u2581palaces": 21765,
  "\u2581magnus": 9047,
  "\u2581base": 1920,
  "\u2581particular": 2329,
  "\u2581protein": 4252,
  "xton": 13228,
  "\u25819th": 5282,
  "\u2581beauty": 4055,
  "\u2581going": 1185,
  "media": 15971,
  "\u2581laurel": 10895,
  "\u2581goran": 27358,
  "\u2581adopting": 15153,
  "\u2581marrow": 23962,
  "\u2581imported": 9966,
  "\u2581calculation": 16210,
  "gui": 24700,
  "game": 15652,
  "\u2581backup": 9202,
  "\u2581parliamentary": 4770,
  "\u2581akron": 21737,
  "\u2581inhibition": 22588,
  "\u2581towel": 9259,
  "\u2581\u4e95": 757,
  "\u2581antioch": 18080,
  "\u2581stanton": 14847,
  "\u2581gillian": 21360,
  "\u2581important": 1592,
  "\u2581chapman": 10528,
  "islav": 18836,
  "\u2581terms": 2410,
  "\u2581system": 1293,
  "\u2581dennis": 5879,
  "\u2581320": 12712,
  "pose": 19690,
  "eda": 10962,
  "\u2581crawley": 27856,
  "\u2581boundaries": 6374,
  "\u2581javanese": 26346,
  "\u2581rollins": 22504,
  "\u2581genetics": 13473,
  "\u2581synagogue": 12069,
  "db": 17941,
  "\u2581precision": 10720,
  "tan": 4796,
  "\u2581singer": 2222,
  "\u2581descent": 5936,
  "\u2581lab": 5847,
  "\u2581floats": 23887,
  "rail": 14120,
  "\u2581cliffs": 12335,
  "\u2581\u05d7": 251,
  "ael": 20149,
  "\u2581singular": 12050,
  "ised": 4086,
  "\u2581plus": 3608,
  "5": 1631,
  "\u2581elite": 6071,
  "\u2581lay": 2915,
  "mony": 21849,
  "\u2581laugh": 3758,
  "\u2581adding": 4817,
  "\u2581scattering": 16503,
  "\u2581wal": 23549,
  "iec": 22785,
  "\u2581sickness": 14558,
  "\u540d": 29323,
  "\u2581vietnamese": 8103,
  "\u2581parent": 5689,
  "\u2581containment": 28176,
  "\u2581colby": 17652,
  "\u2581stretching": 9919,
  "\u2581lieu": 21472,
  "\u2581outbreak": 7295,
  "\u2581sinai": 19839,
  "\u2581hezbollah": 24715,
  "omi": 19938,
  "\u2581arise": 12370,
  "\u2581connections": 6266,
  "ato": 9612,
  "\u2581bottom": 2955,
  "\u2581crush": 9190,
  "\u2581\u30ed": 738,
  "\u2581automation": 18311,
  "\u2581\u2502": 619,
  "\u2581temperance": 22374,
  "\u2581vp": 20212,
  "\u2581educator": 10492,
  "\u2581ralph": 5800,
  "\u2581campaigns": 7010,
  "\u2581rays": 8940,
  "rgan": 16000,
  "\u2581anastasia": 18449,
  "\u25811824": 10619,
  "\u2581subscribers": 16075,
  "\u2581lower": 1898,
  "\u03b8": 28727,
  "\u2581sending": 5018,
  "\u2581politely": 15956,
  "\u2581sampson": 21043,
  "\u2581spreads": 19863,
  "\u2581\u308c": 691,
  "\u2581kendall": 13511,
  "\u2581highways": 9294,
  "\u2581downloads": 21958,
  "ece": 25007,
  "iques": 18518,
  "\u2581somewhere": 3875,
  "\u2581hesitated": 8371,
  "\u2581championships": 2221,
  "\u2581deliver": 7118,
  "\u2581immensely": 23258,
  "\u2581raiding": 22532,
  "\u306a": 29195,
  "\u2581renaissance": 7030,
  "cca": 15667,
  "\u2581launched": 2392,
  "\u2581brew": 23704,
  "channel": 25060,
  "\u2581mls": 15289,
  "cats": 18590,
  "\u2581chester": 7814,
  "\u25812018": 1762,
  "baum": 13900,
  "kee": 19555,
  "\u2581big": 1504,
  "\u2581iraqi": 7958,
  "\u2581attack": 1888,
  "\u2581\u044c": 210,
  "\u2581presentations": 17218,
  "\u2581grab": 5725,
  "\u2581banquet": 18034,
  "\u2581otter": 21281,
  "\u03bf\u03c5": 25791,
  "{": 28642,
  "ban": 7195,
  "\u2581ray": 3099,
  "\u2581priest": 4013,
  "\u2581influenza": 23444,
  "\u2502": 29145,
  "\u2581\u1019": 440,
  "\u2581263": 24248,
  "\u2581leverage": 20157,
  "\u2581<": 29,
  "\u2581\u2666": 629,
  "\u2581auditions": 20734,
  "\u2581immigration": 6523,
  "\u2581nesting": 20018,
  "\u2581nonstop": 24495,
  "\u2581latham": 27739,
  "\u2581ajax": 17178,
  "\u2581martyrs": 17947,
  "\u2581bach": 9386,
  "\u2581\u00b0c": 5364,
  "\u2581disc": 4862,
  "\u2581imprisoned": 7582,
  "\u2581colleagues": 7630,
  "chal": 17600,
  "\u2581alain": 14656,
  "\u2581jia": 24873,
  "\u2581aggressively": 23665,
  "\u2581loudly": 8930,
  "mir": 13505,
  "\u2581greatly": 5553,
  "tute": 23520,
  "\u2581loses": 11388,
  "uo": 18100,
  "\u2581clones": 23420,
  "\u2581calcutta": 12421,
  "\u2581hungary": 4874,
  "\u2581unleashed": 21418,
  "pressed": 18813,
  "\u2581like": 1069,
  "\u2581beach": 2511,
  "\u2581taluka": 28514,
  "\u2581reunion": 9303,
  "\u2581proposition": 13850,
  "\u2581composite": 11492,
  "tarian": 27899,
  "\u2581cancer": 3458,
  "\u2581chloe": 8320,
  "\u2581agree": 4995,
  "du": 7568,
  "ajan": 27871,
  "\u25814": 21,
  "\u2581ache": 11338,
  "\u2581spread": 2661,
  "\u2581walled": 16694,
  "\u2581representations": 14068,
  "\u2581akin": 16795,
  "\u2581brick": 4320,
  "\u2581incorrect": 15544,
  "\u2581barge": 18400,
  "\u2581manuel": 6764,
  "\u2581\u09a3": 364,
  "\u2581signature": 7087,
  "\u2581personal": 2169,
  "\u2581nicknamed": 8921,
  "\u30e5": 29257,
  "\u2581impaired": 17236,
  "yi": 9141,
  "\u2581suitable": 6220,
  "\u2581writes": 6011,
  "iation": 17965,
  "\u2581mystery": 5549,
  "\u2581accepting": 9566,
  "\u2581hungry": 6503,
  "\u2581comforting": 15336,
  "\u0935": 28873,
  "ths": 25832,
  "\u2581whereas": 5170,
  "uting": 19809,
  "\u2581airfield": 8089,
  "cies": 8245,
  "\u2581gareth": 19245,
  "\u2581showed": 2664,
  "\u2581verlag": 13554,
  "\u2581\u00ac": 81,
  "\u2089": 29087,
  "hein": 25498,
  "\u2581scrolling": 27905,
  "ffey": 23515,
  "\u258144": 3010,
  "\u2581handed": 3377,
  "\u2581instinct": 11755,
  "\u2581turn": 1737,
  "\u2581glowing": 9158,
  "\u2581travellers": 18286,
  "\u2581tully": 24726,
  "\u2581seizures": 24752,
  "\u2581gaulle": 27726,
  "iculate": 23155,
  "\u2581plane": 3948,
  "\u2581darmstadt": 27383,
  "\u2581abby": 8462,
  "\u2581educate": 15959,
  "\u2581section": 1932,
  "aran": 19488,
  "\u2581emissions": 10770,
  "\u2581impromptu": 28215,
  "lce": 22316,
  "\u2581fulfill": 12885,
  "\u2581bore": 7503,
  "lide": 23200,
  "\u2581visitation": 27879,
  "\u2581reclaim": 23106,
  "\u2581alloys": 27657,
  "\u2581almost": 1473,
  "\u2581findings": 8558,
  "\u2581extent": 5700,
  "\u2581bellowed": 26388,
  "\u2581impulse": 13984,
  "\u2581populace": 21510,
  "lars": 27697,
  "\u2581reins": 18224,
  "\u2581freaked": 21785,
  "\u2581saxophone": 7285,
  "\u2581vicious": 12927,
  "ce": 2403,
  "\u2581hostages": 18325,
  "ka": 1914,
  "\u2581brown": 1831,
  "lav": 13975,
  "\u2581growled": 7883,
  "\u2581clicked": 12888,
  "\u2581evelyn": 11905,
  "\u2581block": 2798,
  "\u2581maguire": 25198,
  "lius": 14515,
  "\u203f": 29071,
  "\u2581pantry": 26798,
  "\u2581eater": 27498,
  "\u2581\u00a33": 27184,
  "\u2581casting": 8181,
  "\u2581daisy": 9411,
  "\u2581chuck": 7059,
  "\u2581ozone": 25445,
  "\u2581wouldn": 1878,
  "\u2581starred": 4654,
  "\u2581semiconductor": 19683,
  "\u2581scotia": 8678,
  "\u2581collaboration": 4794,
  "\u2581mainly": 2703,
  "\u0432": 24531,
  "\u2581toes": 9395,
  "\u2581expose": 13453,
  "\u2581greta": 25113,
  "\u2581recording": 2407,
  "\u2581adequate": 10708,
  "\u258132": 2592,
  "\u2581parenting": 27588,
  "dara": 24331,
  "\u2581terrific": 26549,
  "adia": 24207,
  "vio": 24502,
  "\u2581spectacular": 11658,
  "\u2581pleasing": 23822,
  "nched": 18284,
  "\u2581interiors": 19771,
  "\u2581angered": 17750,
  "\u2581decrease": 8887,
  "\u2581blocked": 7536,
  "\u2581disrepair": 26801,
  "\u2581overdose": 25643,
  "\u2581shielding": 24555,
  "\u2581scare": 11667,
  "\u2581slide": 6360,
  "\u2581magnesium": 23985,
  "\u0259": 28683,
  "hmi": 25839,
  "\u2581suppression": 15343,
  "\u2581\u1161": 473,
  "\u00ba": 28664,
  "\u2581so": 1064,
  "u": 1228,
  "\u2581mixed": 2818,
  "\u2581context": 5125,
  "\u2581nobles": 12971,
  "\u2581same": 1170,
  "\u2581wigan": 14600,
  "\u2581divorced": 8198,
  "\u2581bratislava": 21994,
  "\u2581dust": 5499,
  "im": 4716,
  "\u2581stiffly": 26501,
  "\u2581scares": 28423,
  "agger": 26611,
  "\u2581grew": 2475,
  "enburg": 11061,
  "\u0997": 28893,
  "\u2581duane": 26321,
  "\u2581estuary": 17058,
  "\u2581lulu": 20746,
  "makers": 11090,
  "\u2581donnelly": 27319,
  "\u2581snow": 3588,
  "arded": 27039,
  "\u2581graf": 21162,
  "\u2581previously": 2132,
  "\u2581sharply": 8251,
  "\u2581garden": 2873,
  "\u2581lap": 4003,
  "\u25811664": 27487,
  "\u2581triple": 5422,
  "l": 1142,
  "\u2581academic": 2836,
  "\u2581byrne": 13930,
  "nell": 8093,
  "dee": 25097,
  "\u2581defiance": 18676,
  "\u2581thing": 1520,
  "\u2581rotating": 12620,
  "\u2581ein": 15419,
  "\u2581glossy": 18506,
  "\u2083": 10624,
  "\u25811950s": 3858,
  "\u2581joined": 1589,
  "\u2581profile": 5339,
  "\u2581warned": 6422,
  "\u2581jules": 10046,
  "\u2581pip": 27317,
  "\u2581regularly": 4572,
  "\u2581safeguard": 27807,
  "\u2581mari": 15268,
  "\u2581gerald": 8661,
  "\u2581schedules": 19285,
  "logy": 5485,
  "aghan": 25687,
  "\u1165": 29010,
  "tream": 24381,
  "\u2581muller": 11306,
  "\u2581avila": 28081,
  "\u2581intro": 16176,
  "\u2581sting": 11074,
  "\u2581shiny": 11540,
  "hita": 22937,
  "\u2581thick": 3319,
  "\u2581cargo": 5638,
  "\u2581compassionate": 28355,
  "\u2581swam": 15851,
  "\u2581scars": 12523,
  "\u2581santo": 10687,
  "\u2581stimulus": 18222,
  "\u2581fabric": 7315,
  "\u2581interfered": 27978,
  "lais": 27706,
  "\u2581duty": 3613,
  "\u2581ai": 8934,
  "\u2581scripted": 21894,
  "\u2581reggae": 14664,
  "\u2581authorship": 25326,
  "\u2581\u09a5": 366,
  "\u2581derek": 6258,
  "\u2581purse": 7724,
  "\u2581paige": 16033,
  "\u2581daughter": 1686,
  "\u2581convert": 9465,
  "\u2581verified": 19121,
  "\u2581hip": 4101,
  "\u2581musique": 24786,
  "\u2581faso": 21775,
  "\u2581lunar": 10928,
  "\u2581liaison": 13977,
  "\u2581sl": 21891,
  "12": 11523,
  "lford": 22213,
  "\u2581milne": 23379,
  "\u2581showdown": 23421,
  "neer": 18757,
  "\u2581\u1d2e": 494,
  "\u2581ottoman": 5190,
  "\u2581proponents": 19403,
  "\u2581crystalline": 23630,
  "\u2581shielded": 24476,
  "\u2581psyche": 24776,
  "\u2581widely": 3237,
  "\u2581romanesque": 16137,
  "ong": 4065,
  "\u2581demo": 8705,
  "\u2581fatty": 18103,
  "osh": 16371,
  "\u2581notation": 13871,
  "\u2581erase": 21507,
  "llan": 18038,
  "\u2581lenny": 18067,
  "\u2581hammersmith": 27422,
  "\u2581roared": 13244,
  "\u2581fordham": 26304,
  "\u2581\u5e73": 842,
  "\u2581\u0bb0": 394,
  "\u2581gorge": 13982,
  "\u2581mack": 10351,
  "\u2581tang": 8747,
  "\u2581consort": 12442,
  "\u2581272": 23233,
  "\u2581lungs": 7950,
  "\u2581sympathy": 10885,
  "\u2581camera": 3952,
  "\u2581\u0928": 330,
  "\u2581sequences": 9073,
  "\u2581/": 16,
  "\u2581cretaceous": 17124,
  "\u2581monkeys": 16061,
  "\u2581defect": 20264,
  "\u2581seems": 2851,
  "\u258133rd": 19885,
  "\u2581sake": 7741,
  "\u2581poster": 12084,
  "olo": 11900,
  "\u2581extension": 4333,
  "\u258138th": 21053,
  "\u2581cascade": 15692,
  "\u014b": 28675,
  "\u25811983": 2174,
  "\u2581josef": 11949,
  "\u2581secondary": 2907,
  "\u2581update": 9653,
  "tres": 18170,
  "\u2581modules": 13186,
  "\u2581lac": 17751,
  "\u2581constantinople": 10778,
  "arte": 23849,
  "lun": 25898,
  "\u8033": 29465,
  "\u2581168": 15925,
  "\u2581sarcastic": 21475,
  "\u2581enrico": 20984,
  "\u2581fooled": 24859,
  "\u2581appealed": 11070,
  "\u2581lao": 17807,
  "\u2581luz": 25216,
  "\u2581encompasses": 12976,
  "promising": 24015,
  "\u2581580": 22714,
  "\u2581underwear": 13238,
  "rp": 13538,
  "\u2581unpredictable": 20448,
  "rsten": 18022,
  "\u2581namely": 7421,
  "\u2581missions": 5418,
  "\u2581relieved": 6655,
  "\u2581document": 5256,
  "\u2581naturally": 7102,
  "\u2581springer": 16483,
  "\u1162": 29009,
  "\u2581horrific": 22514,
  "\u2581waitress": 12879,
  "\u2581\u0995": 356,
  "\u2581bridget": 18220,
  "\u2581sylvester": 19018,
  "\u2581forms": 2598,
  "\u2581moths": 13887,
  "\u2581john": 1200,
  "\u2581sufi": 20847,
  "\u2581meaningless": 24122,
  "\u2581treasurer": 9213,
  "\u2581pens": 24638,
  "\u2581bowler": 14001,
  "\u2581ads": 13999,
  "\u2581\uff0e": 994,
  "\u2581alliances": 20279,
  "rdi": 16082,
  "\u2581obstacles": 14316,
  "vet": 18512,
  "\u2581khan": 3969,
  "\u2581chronological": 22474,
  "tley": 17494,
  "\u2581entirely": 3500,
  "\u2581claus": 18120,
  "\u2581enoch": 27180,
  "\u2581humble": 14718,
  "\u2581moderately": 16846,
  "\u2581daniel": 2819,
  "\u2581movements": 4752,
  "\u25811816": 11359,
  "\u2581impatience": 27013,
  "\u2581macleod": 22077,
  "oca": 23757,
  "\u2581broncos": 13171,
  "\u2581quarterback": 8076,
  "\u2581mag": 22850,
  "\u2581structured": 13338,
  "\u2581110": 6289,
  "\u2581lilly": 13767,
  "ration": 7158,
  "\u2581\u8033": 940,
  "\u2581sanctioned": 13757,
  "\u2581howl": 21914,
  "\u2581hoisted": 26271,
  "led": 2711,
  "\u2581hybrids": 22378,
  "\u2581handles": 15026,
  "uating": 23135,
  "\u2581coverage": 5327,
  "\u1da0": 29049,
  "\u2581jaw": 4732,
  "\u2581lowe": 13088,
  "\u2581brief": 3768,
  "\u2581begs": 26593,
  "\u2581them": 1071,
  "\u2581tackles": 9457,
  "\u2581helped": 2273,
  "\u2581trooper": 27226,
  "gra": 16645,
  "\u2581witnessing": 23742,
  "\u2581draw": 3011,
  "dgets": 27684,
  "\u2581share": 2747,
  "\u2581orchid": 14575,
  "\u2581acids": 11739,
  "\u2010": 29050,
  "\u2581doubtful": 20890,
  "\u540c": 29322,
  "\u2581mueller": 25776,
  "\u2581stallion": 18124,
  "enary": 23555,
  "ery": 6303,
  "90": 20059,
  "\u2581boardwalk": 28498,
  "\u2581measures": 4763,
  "aca": 18631,
  "\u2581newell": 27054,
  "\u2581regional": 2166,
  "\u2581maggie": 7540,
  "\u2581tis": 21322,
  "\u2581supervising": 20240,
  "endez": 27789,
  "\u2581dodgers": 12393,
  "\u2581streams": 8201,
  "art": 7447,
  "\u2581only": 1072,
  "\u2581regards": 11364,
  "\u2581restrain": 27469,
  "oes": 21506,
  "\u2581glittering": 19334,
  "\u2581wryly": 27327,
  "\u2581orbit": 7755,
  "\u2581rhythm": 5350,
  "\u2581140": 7576,
  "\u2581\u5c1a": 833,
  "\u2581swan": 9679,
  "\u2581violated": 13426,
  "erus": 20610,
  "\u0936": 28874,
  "\u2581eu": 6329,
  "\u2581lied": 8830,
  "\u2581aspirations": 21879,
  "\u2581representing": 4054,
  "\u2581quieter": 26488,
  "\u2581ponytail": 17867,
  "\u2581necessity": 12187,
  "\u76ee": 29446,
  "\u2581coffee": 3159,
  "\u2581toilet": 10850,
  "\u2581norris": 14468,
  "\u2581commonwealth": 4665,
  "\u25811870": 5942,
  "\u2581belly": 6581,
  "\u2581satisfy": 12227,
  "\u03b9\u03b1": 26434,
  "rily": 10274,
  "kara": 15568,
  "\u2581instruments": 4695,
  "\u2581reigns": 22483,
  "\u2581whorls": 24639,
  "\u2581311": 22534,
  "\u2581shove": 13740,
  "\u2581goldstein": 24509,
  "\u2581separates": 17602,
  "yad": 24154,
  "\u2581nm": 12223,
  "\u2581scar": 10230,
  "\u2581filming": 6469,
  "\u2581\u00bf": 97,
  "\u2581pedestrian": 13664,
  "\u2581garde": 13537,
  "runa": 25607,
  "\u2581comb": 21865,
  "\u2581chestnut": 14657,
  "\u25811638": 26499,
  "\u2581ks": 28537,
  "\u2581cremated": 27378,
  "\u2581loretta": 27495,
  "xious": 24173,
  "\u2581older": 2082,
  "\u2581colt": 8112,
  "nton": 14106,
  "\u2581bartholomew": 18868,
  "\u2581\u82f1": 944,
  "rera": 23070,
  "\u2581transitional": 16461,
  "\u2581babe": 10563,
  "\u02bf": 28716,
  "\u2581dominated": 5819,
  "\u2581feasibility": 23012,
  "\u96c4": 29502,
  "\u2581ecuador": 9380,
  "eus": 9602,
  "\u2581regard": 6636,
  "\u2581quad": 16720,
  "\u2581fatal": 9613,
  "\u2581contemplated": 22135,
  "\u2581za": 22566,
  "\u2581hiroshima": 19170,
  "\u2581ro": 19998,
  "\u2581institutes": 11771,
  "\u2581stomped": 20920,
  "\u2581seed": 5536,
  "\u2581investors": 8389,
  "lellan": 24841,
  "\u2581\u5fa1": 850,
  "\u2581todd": 5929,
  "\u2581deeply": 5173,
  "inating": 18187,
  "\u2581albums": 3044,
  "\u2581coat": 4437,
  "\u2581supremacy": 21008,
  "\u2581puzzle": 10991,
  "\u2581bars": 5965,
  "\u2581holders": 12306,
  "\u2581cyclists": 20914,
  "dran": 23916,
  "\u2581holly": 8081,
  "\u2581maureen": 18169,
  "ting": 2438,
  "\u2581stresses": 22255,
  "\u2581rosenthal": 28064,
  "\u2581partisans": 19764,
  "\u2581roses": 9531,
  "\u2581magdalene": 25892,
  "yuki": 18665,
  "\u2581sodium": 12367,
  "ians": 6068,
  "app": 28100,
  "\u2581cellar": 14425,
  "\u2581decisions": 5569,
  "\u2581unified": 9564,
  "ifier": 17097,
  "\u2581aisles": 24444,
  "\u2581rumbling": 25672,
  "\u2581valkyrie": 25698,
  "\u2581lynx": 21638,
  "yah": 16562,
  "sor": 20750,
  "\u2581python": 17752,
  "\u2581started": 1320,
  "\u2581farms": 7625,
  "\u2581snatched": 13179,
  "\u2581cao": 11968,
  "\u2581lamp": 9439,
  "\u2581published": 1407,
  "\u2581martyr": 16218,
  "\u2581vegetarian": 22568,
  "\u2581wwf": 15781,
  "\u2581sophie": 7236,
  "400": 28539,
  "\u2581kyle": 6650,
  "\u2581fortified": 12315,
  "isance": 27140,
  "stov": 28475,
  "\u2581deal": 2068,
  "\u2581asthma": 25182,
  "\u2581chronology": 16875,
  "\u2581hamilton": 4228,
  "lina": 12788,
  "\u2581johnstone": 23162,
  "\u2581refinery": 20036,
  "\u2581colombo": 15226,
  "lev": 19416,
  "\u2581coding": 15863,
  "athlon": 16565,
  "\u2581cat": 3939,
  "\u2581lonely": 8481,
  "\u2581believe": 1905,
  "\u2581bark": 10288,
  "\u2581pensacola": 25075,
  "dley": 13234,
  "\u2581strikes": 8328,
  "\u2581dose": 12006,
  "\u2581retired": 2396,
  "graphic": 13775,
  "\u2581defiant": 26838,
  "\u2581protection": 2862,
  "\u2581craftsmen": 24738,
  "\u2581revived": 9572,
  "sphere": 22876,
  "\u2581martinez": 9339,
  "\u2581denis": 10066,
  "\u2581gymnast": 24057,
  "\u2581glacier": 9048,
  "\u2581clair": 16938,
  "\u2581239": 22690,
  "ons": 4646,
  "\u2581opened": 1443,
  "bo": 4094,
  "\u2581streak": 8041,
  "\u2581balkan": 16583,
  "vid": 16260,
  "\u2581hello": 6594,
  "\u2581biblical": 9215,
  "\u2581adherence": 28237,
  "rio": 8490,
  "\u2581speedy": 25205,
  "\u2581unease": 26882,
  "\u662d": 29396,
  "\u2581field": 1494,
  "\u2581visual": 4109,
  "\u2581sikhs": 25699,
  "\u2581volga": 25461,
  "\u2581alfa": 21991,
  "\u2581fountain": 8547,
  "\u2581leone": 12365,
  "\u2581galen": 20064,
  "\u2581boarding": 8407,
  "\u2581meal": 6956,
  "\u2581\u222a": 608,
  "\u2581pharmaceutical": 12861,
  "\u2581impressions": 18223,
  "\u2013": 29053,
  "er": 1124,
  "ows": 14570,
  "\u2581snyder": 16842,
  "\u2581vhs": 16552,
  "\u2581wilder": 17465,
  "\u05e4": 28809,
  "erry": 18828,
  "tt": 3781,
  "\u10d3": 28979,
  "\u2581355": 25273,
  "\u0937": 28875,
  "\u2581briefcase": 20795,
  "bah": 23208,
  "\u2666": 29155,
  "\u2581iucn": 19335,
  "\u2581sibling": 21943,
  "\u2581inflammation": 20735,
  "\u2581rabbit": 9444,
  "\u2581disagreed": 17337,
  "\u2581mix": 3668,
  "\u2581bobbie": 26733,
  "\u2581communes": 15571,
  "tto": 8286,
  "\u2581coughing": 20456,
  "\u258130th": 12295,
  "\u2581sociology": 10509,
  "28": 21409,
  "\u2581camilla": 25904,
  "\u2581caldwell": 15591,
  "\u25811991": 1891,
  "\u2581stamped": 19836,
  "\u2581crimean": 19518,
  "\u2581expectation": 16628,
  "\u2581professionally": 11147,
  "\u2581overwhelmingly": 23785,
  "ellant": 23180,
  "\u2581nwa": 14739,
  "lessness": 23915,
  "\u2581slaughter": 13576,
  "\u2581shaun": 15847,
  "\u2581idaho": 8797,
  "\u2581urine": 16998,
  "heard": 25364,
  "\u2581kolkata": 12524,
  "duced": 27903,
  "\u2581proficiency": 25295,
  "\u2581bn": 23871,
  "\u2581organization": 2031,
  "\u2581steamship": 22871,
  "\u2581canteen": 25451,
  "\u2581cullen": 18927,
  "\u2581detector": 18036,
  "\u2581telegraph": 9015,
  "wer": 12779,
  "\u2581minerals": 12248,
  "\u2581medina": 14763,
  "rama": 13674,
  "\u2581headache": 13980,
  "minate": 18271,
  "\u2581seafood": 22623,
  "\u2581ceilings": 20100,
  "\u2581glide": 20098,
  "\u2581inversion": 27529,
  "\u2581odor": 18257,
  "lian": 14206,
  "liffe": 26933,
  "ution": 12702,
  "\u2581balloon": 12214,
  "\u2581orb": 18609,
  "\u2581diverted": 17358,
  "\u2581\u00b0f": 7159,
  "\u2581accreditation": 13895,
  "\u2581sol": 13019,
  "\u2581quit": 7048,
  "mento": 22067,
  "\u2581news": 1741,
  "\u2581matrix": 7187,
  "\u2581commission": 2224,
  "\u201a": 29059,
  "\u2581numbering": 14202,
  "\u2581conquer": 15154,
  "\u2581spitfire": 27325,
  "\u2581boarded": 16385,
  "\u2581outpost": 20082,
  "own": 11386,
  "\u2581principle": 5960,
  "\u2581highlight": 11946,
  "\u2581bonuses": 28565,
  "\u2581curling": 10601,
  "\u2581revenues": 11596,
  "\u2581frog": 9731,
  "gated": 10646,
  "\u2581balfour": 26562,
  "itate": 16572,
  "\u2581glance": 5056,
  "\u2581linguistic": 11160,
  "\u2581owners": 4610,
  "\u2581fan": 4472,
  "ju": 8105,
  "\u2581fm": 3720,
  "\u2581depot": 7472,
  "\u2581palatinate": 17992,
  "\u2581c": 42,
  "\u2581alpine": 9350,
  "\u2581columnist": 12319,
  "\u2581dahl": 26936,
  "\u2581noctuidae": 23895,
  "\u2581recreated": 28416,
  "\u2581herring": 21105,
  "\u2581trolley": 19822,
  "\u2581straightening": 26510,
  "\u2581marin": 15402,
  "\u2581fascinated": 14679,
  "\u2581features": 1840,
  "\u2581cube": 13293,
  "\u2581noses": 26520,
  "\u2581dictator": 20239,
  "qual": 25428,
  "\u2581psychologist": 14036,
  "vera": 25063,
  "\u2581outburst": 26721,
  "\u03bd": 15179,
  "\u2581hyde": 10806,
  "\u2581calculating": 19179,
  "\u2581indoors": 23276,
  "gb": 17261,
  "\u2581spare": 7624,
  "\u2581company": 1196,
  "\u2581ascension": 17073,
  "\u2581tits": 24673,
  "\u2581dutch": 2805,
  "dda": 24064,
  "\u2581soup": 10352,
  "\u2581grave": 5544,
  "\u2581traversed": 26799,
  "\u2581agrarian": 22228,
  "\u2581rock": 1602,
  "\u2581weekends": 12501,
  "\u2581sculptors": 27419,
  "\u2581swollen": 12410,
  "\u2581vowels": 14262,
  "\u2581accountability": 16844,
  "\u2581advantage": 4058,
  "\u2581campos": 25927,
  "\u898b": 29476,
  "\u2581chants": 28536,
  "\u2581yan": 12621,
  "\u2581verses": 10088,
  "\u2581fridge": 15718,
  "\u2581api": 16930,
  "\u2581rumours": 18202,
  "uchi": 14219,
  "\u2581mounted": 4616,
  "\u2581originally": 1763,
  "ancy": 10658,
  "\u2581fished": 25283,
  "khan": 25372,
  "ctive": 14279,
  "\u2581felony": 23650,
  "mium": 26761,
  "\u2581sabah": 21517,
  "\u5317": 29309,
  "\u2581shelton": 21232,
  "\u2581birds": 4057,
  "\u2581void": 10677,
  "\u2581dreamed": 12832,
  "\u2581\u3068": 669,
  "gic": 11865,
  "\u2581evenings": 15243,
  "\u2581ptolemy": 22519,
  "\u2581mid": 2056,
  "\u2581275": 16530,
  "\u2581encyclopedia": 11206,
  "\u2581rustic": 26473,
  "oked": 22463,
  "\u2581minneapolis": 10336,
  "\u2581viewing": 9525,
  "\u2581kota": 22858,
  "\u2581gun": 2284,
  "\u2581goddamn": 15479,
  "\u2581m3": 28063,
  "\u2581highlands": 10786,
  "\u00b6": 28662,
  "\u2581destroyer": 8801,
  "\u2581therapeutic": 16263,
  "\u2581plead": 24805,
  "\u2581registers": 17689,
  "\u2581investigative": 14027,
  "umble": 25609,
  "\u2581stool": 13710,
  "\u2581mccarthy": 11586,
  "\u25811717": 26527,
  "ply": 21088,
  "\u2581\u6708": 875,
  "\u2581crumpled": 18816,
  "rov": 11300,
  "\u25812000": 1458,
  "\u2581\u05e6": 266,
  "chia": 19883,
  "\u2581\u65b9": 866,
  "\u2581rearview": 27728,
  "\u2581choreography": 15969,
  "\u2581commercial": 2295,
  "\u2581analogy": 22325,
  "weig": 26206,
  "\u2581bonded": 19888,
  "\u2581crying": 5935,
  "\u2581unfortunate": 14142,
  "\u2581exclude": 22331,
  "\u2581proposal": 5380,
  "\u2581unharmed": 27152,
  "\u2581afl": 9030,
  "\u2581provinces": 5943,
  "\u2581kangaroo": 20654,
  "\u2581cafes": 22814,
  "\u2581speech": 3615,
  "fera": 26711,
  "\u2581exeter": 11871,
  "\u2581radio": 1559,
  "\u2581universal": 4417,
  "\u2581hasty": 26153,
  "rsa": 21383,
  "\u2581ci": 24024,
  "\u2581gaddafi": 27926,
  "tus": 4811,
  "\u2581pass": 2415,
  "\u2581reference": 3433,
  "pol": 17157,
  "lson": 13883,
  "\u2581truly": 4623,
  "\u2581diagrams": 25311,
  "\u2581funded": 5789,
  "\u2581ridges": 15388,
  "\u2581belle": 8854,
  "hg": 24621,
  "\u2581hash": 22327,
  "\u2581continent": 8985,
  "\u2581temperatures": 6717,
  "\u2581temperature": 3862,
  "\u2581payload": 17095,
  "tively": 24501,
  "\u5b89": 29348,
  "\u2581practitioner": 17744,
  "\u2581recruit": 12026,
  "\u2581ussr": 9333,
  "\u2581carson": 8808,
  "\u2581confederacy": 17181,
  "\u2581sheets": 7699,
  "\u2581rook": 27622,
  "\u2581\u090f": 317,
  "\u2581jack": 1992,
  "\u0142aw": 18706,
  "vating": 25479,
  "\u2581damage": 3055,
  "\u2581threshold": 10209,
  "\u2581thorne": 13298,
  "ances": 25757,
  "\u2581archaeology": 11011,
  "\u2581jumping": 7662,
  "\u2581shoot": 4609,
  "\u2581dignitaries": 26962,
  "ads": 18305,
  "\u2581plains": 7577,
  "\u2581alike": 10457,
  "\u2581repealed": 20494,
  "\u2581queer": 18485,
  "hes": 14691,
  "\u2581bohemia": 15801,
  "\u2581\u3072": 676,
  "\u2581precautions": 28363,
  "\u2581food": 1835,
  "\u2581sumner": 22924,
  "\u2581rebellious": 21616,
  "chs": 17071,
  "\u2581positive": 2895,
  "\u2581bf": 27941,
  "\u2581examples": 3975,
  "\u2581remix": 5138,
  "\u2581duct": 22247,
  "\u2581\u09b8": 379,
  "\u2581jo": 7185,
  "\u2581bath": 6200,
  "jord": 23878,
  "cher": 6476,
  "osta": 27698,
  "\u2581pump": 9218,
  "\u2581ivan": 6334,
  "\u2581blackout": 25719,
  "\u2581ars": 28395,
  "tius": 21640,
  "cre": 15750,
  "ures": 13902,
  "\u2581definitely": 4793,
  "\u2581node": 12047,
  "\u2581growing": 2654,
  "\u2581accommodation": 10368,
  "\u2581crypt": 18890,
  "\u00b4s": 20934,
  "\u2581petersburg": 7064,
  "\u2581guests": 5370,
  "\u2581stereo": 11993,
  "\u2581stuffed": 10814,
  "\u2581concordia": 23984,
  "\u2581turf": 13587,
  "\u2581indiana": 4244,
  "\u2581opaque": 27672,
  "\u25811900s": 15432,
  "\u2581package": 6429,
  "\u2581induce": 18655,
  "\u2581ipod": 25324,
  "\u2581rainy": 15375,
  "\u2581doubted": 11981,
  "\u2581acknowledges": 27051,
  "\u2581294": 27137,
  "\u2581trunks": 19511,
  "\u2581negatively": 18764,
  "\u2581certainty": 14857,
  "\u2581references": 6606,
  "\u2581predictions": 19934,
  "\u2581ghz": 28068,
  "\u2581reich": 13367,
  "\u2581terrain": 8293,
  "\u2581kiss": 2612,
  "\u2581248": 23570,
  "\u2581exit": 5166,
  "\u2581alto": 9768,
  "\u2581narrated": 16358,
  "\u2581tying": 14235,
  "\u2581protesting": 20250,
  "\u2581natalie": 9831,
  "ants": 10392,
  "\u2581interdisciplinary": 17595,
  "mos": 14532,
  "\u2581dwarfs": 27986,
  "\u2581gatherings": 20405,
  "\u2581kelvin": 23812,
  "\u2581progressed": 11508,
  "\u2581migrant": 19733,
  "\u2581take": 1204,
  "\u2581hen": 20865,
  "\u2581mori": 21995,
  "lino": 24228,
  "\u2581toll": 8567,
  "grove": 20527,
  "\u2581clare": 10154,
  "\u2581dec": 10705,
  "\u03b4": 28724,
  "\u2581tolerate": 18244,
  "\u2581cf": 11937,
  "\u2581province": 1876,
  "\u2581promptly": 12366,
  "\u2581unarmed": 22208,
  "\u2581hideous": 21295,
  "\u2581compensation": 8432,
  "\u2581haunted": 10173,
  "\u2581ship": 1913,
  "\u2581bond": 4418,
  "\u2581\u4ecb": 762,
  "\u2581implement": 9410,
  "\u2581challenged": 7317,
  "\u2581sue": 8792,
  "\u2581structures": 4092,
  "\u2581spoil": 26596,
  "\u2581puppets": 25103,
  "\u2581mobilization": 24582,
  "\u2581tentacles": 23721,
  "\u2581console": 9124,
  "\u2581stats": 25321,
  "\u2581vic": 9969,
  "dating": 15618,
  "\u2581obsidian": 28044,
  "\u2581will": 1100,
  "\u2581regatta": 25850,
  "\u2581alfred": 5154,
  "\u2581mallory": 19470,
  "castle": 22664,
  "uki": 13230,
  "\u2581repeating": 14194,
  "\u2581withdrawal": 9536,
  "\u2581gauge": 6635,
  "\u2581earn": 6798,
  "\u2581catastrophic": 22548,
  "\u2581tori": 22415,
  "\u2581139": 15623,
  "\u2581dinamo": 21308,
  "\u2581ambushed": 21170,
  "\u2581747": 24376,
  "\u2581squad": 3688,
  "\u2581plantation": 9067,
  "\u2581333": 20213,
  "\u2581amherst": 18852,
  "\u2581\u1166": 476,
  "\u2581mechanism": 6339,
  "\u2581bosch": 24938,
  "\u2581believing": 7931,
  "\u2581travelers": 14185,
  "\u2581greene": 10008,
  "\u2581armor": 7179,
  "\u2581hallmark": 24814,
  "\u2581seeded": 12918,
  "\u2581finely": 21128,
  "\u2581ride": 3538,
  "\u2581focus": 2581,
  "\u2581trailed": 10147,
  "\u2581blackpool": 16446,
  "\u2581congratulations": 22158,
  "\u2581hillary": 17522,
  "\u2581henrietta": 19777,
  "\u2581worthless": 21694,
  "\u2581gupta": 19514,
  "\u2581palo": 23328,
  "hing": 11055,
  "\u2581imp": 16729,
  "\u2581bombers": 9546,
  "gli": 24396,
  "ena": 7191,
  "\u2581cecil": 10980,
  "omorphic": 27505,
  "horse": 22026,
  "\u2581obe": 14580,
  "\u2581mont": 17320,
  "ani": 6090,
  "\u2581right": 1159,
  "\u2581playback": 17247,
  "bies": 19538,
  "\u2581vortex": 22465,
  "\u2581misleading": 21371,
  "fast": 23335,
  "\u2581technical": 3089,
  "\u2581elena": 8062,
  "\u2581learners": 25264,
  "\u11b8": 29026,
  "\u2581mats": 21283,
  "\u2581photos": 6762,
  "\u2581utility": 8712,
  "\u2581surfing": 18969,
  "\u2581opportunity": 3497,
  "\u2581edible": 20008,
  "\u2581believed": 2375,
  "ain": 7115,
  "\u2581sip": 9670,
  "\u2581persecution": 13524,
  "nco": 14307,
  "\u2581thorns": 27410,
  "\u2581fled": 5785,
  "\u2096": 29096,
  "dur": 23981,
  "\u2581learned": 3344,
  "hp": 21271,
  "\u2581nylon": 26203,
  "\u2581\ufb02": 988,
  "\u2581orders": 3451,
  "\u2581facilitate": 9958,
  "\u2581explored": 9643,
  "\u25811984": 2120,
  "hini": 19537,
  "\u2581jets": 8926,
  "berg": 3061,
  "\u2581rosalie": 28566,
  "ior": 24348,
  "\u2581davis": 3484,
  "\u2581method": 3120,
  "\u2581savage": 8578,
  "\u2581tablet": 12857,
  "\u2581sorrow": 13040,
  "\u2581ellington": 20632,
  "\u2581advisor": 7621,
  "auer": 20128,
  "\u2581models": 3277,
  "\u2581stirred": 12553,
  "\u2581tough": 6825,
  "\u2581ceylon": 15449,
  "\u2581shia": 19476,
  "bella": 20702,
  "\u2581sofie": 25361,
  "\u2581dressing": 10227,
  "\u7684": 29444,
  "\u2581licence": 10174,
  "\u2581hurled": 23027,
  "dden": 16103,
  "\u2581tensions": 12138,
  "\u2581labelled": 17253,
  "\u2581christianity": 6990,
  "\u2581historically": 6147,
  "\u2581prescription": 19424,
  "\u2581consecrated": 11301,
  "\u2581char": 24871,
  "\u2581gdp": 13232,
  "\u2581astronauts": 24883,
  "\u2581238": 21032,
  "\u2581guthrie": 18954,
  "\u2581tak": 26008,
  "ative": 7084,
  "\u2581tighten": 20247,
  "\u2581frantically": 15462,
  "\u2581fun": 3571,
  "\u2581ledge": 17285,
  "\u2581\u1d30": 495,
  "\u2581amusing": 18144,
  "\u2581unanimously": 14647,
  "tower": 22198,
  "\u2581widening": 16975,
  "\u2581combines": 12587,
  "\u2581carpet": 9137,
  "\u2581herbs": 16563,
  "sburg": 8697,
  "\u2581succeeds": 20647,
  "\u2581kazakhstan": 10771,
  "\u2581privacy": 8396,
  "\u2581soloist": 15506,
  "\u2581concerts": 5761,
  "\u2581\u2026": 532,
  "\u2581donor": 14011,
  "\u2581biographer": 16123,
  "tate": 11261,
  "\u25811663": 28018,
  "\u2581beau": 16937,
  "\u2581expressed": 4230,
  "\u2581breeders": 19825,
  "eira": 20304,
  "\u2581imports": 16591,
  "\u2581runners": 6192,
  "ort": 10591,
  "\u2581fundraising": 14526,
  "\u00bf": 28668,
  "\u2581undertake": 15619,
  "\u2581ave": 12644,
  "\u2581pictured": 14887,
  "\u2581percussion": 5335,
  "lwyn": 28289,
  "\u2581suits": 10074,
  "ols": 26898,
  "\u2581felix": 7385,
  "haven": 13652,
  "\u2581cozy": 25933,
  "\u2581rocks": 4751,
  "\u2581counting": 9322,
  "odies": 26393,
  "\u2581sponsorship": 11028,
  "mie": 8858,
  "taka": 27414,
  "\u2581irving": 11417,
  "rous": 12290,
  "\u2581razor": 14084,
  "\u2581sham": 24852,
  "\u2581vegetables": 10548,
  "phila": 25085,
  "lers": 11912,
  "\u2581jailed": 20280,
  "\u2581might": 1455,
  "tooth": 18394,
  "\u2581jens": 24095,
[...]
